#include "tiny_model.h"


const uint8_t conv2d_0_weight[] = {
    0x45, 0x62, 0x13, 0x09, 0x5E, 0x1B, 0xED, 0x41, 0x37,
};

const uint8_t conv2d_0_bias[] = {
    0x02, 0x00, 0x00, 0x00, 0x03, 0x00, 0x00, 0x00,
};

const uint8_t conv2d_0_output_scale[] = {
    0x62, 0x49, 0x84, 0x3E,
};

const uint8_t conv2d_0_output_zero_point[] = {
    0xFF,
};

const uint8_t conv2d_0_input_zero_point[] = {
    0x00,
};

const uint8_t conv2d_0_bias_scale[] = {
    0x45, 0xEC, 0xB8, 0x3C,
};

const uint8_t relu_0_input_zero_point[] = {
    0xFF,
};

const uint8_t linear_0_weight[] = {
    0xF6, 0xBF, 0x1E, 0xFB, 0xEA, 0xE5, 0x20, 0xCF, 0xFB, 0x92, 0x22, 0x1A, 0xB7, 0x36, 0x43, 0x90,
    0xBC, 0xED, 0xED, 0xF7, 0xD3, 0x6B, 0xCB, 0xCB, 0x25, 0xD7, 0x2F, 0x23, 0x22, 0x2D, 0x60, 0x07,
    0x2F, 0x47, 0xEA, 0xCD, 0x51, 0x12, 0x27, 0xFD, 0xF2, 0x5C, 0xDE, 0x62, 0xB2, 0xDE, 0xC1, 0xD1,
    0x0A, 0x46, 0x54, 0xC7, 0x10, 0x3F, 0x54, 0x75, 0xB0, 0x33, 0xEF, 0x7E, 0xCB, 0xEB, 0x4C, 0x9B,
    0xB5, 0xD1, 0x79, 0xBB, 0xE9, 0x1F, 0xC1, 0x4A, 0x51, 0xB1, 0x0F, 0x6E, 0xD7, 0x76, 0x4F, 0xB7,
    0x4C, 0xC5, 0x41, 0x0F, 0x4E, 0x33, 0x3A, 0x70, 0x5F, 0x5E, 0xD2, 0xD0, 0xA1, 0x14, 0xAD, 0x6B,
    0xC2, 0x49, 0x2C, 0x5E, 0x61, 0x0B, 0xAE, 0xA6, 0xF6, 0xF0, 0x42, 0x1B, 0xFC, 0x0C, 0xB6, 0x35,
    0xBA, 0x5A, 0xD7, 0x4D, 0xBD, 0xED, 0xB4, 0xD0, 0xD3, 0x43, 0xF9, 0x34, 0x4A, 0x3C, 0x1C, 0x0B,
    0x21, 0x7E, 0x1B, 0x62, 0xEC, 0xC4, 0xBF, 0x61, 0x69, 0x4F, 0xDA, 0x44, 0x3C, 0xFB, 0x0D, 0x41,
    0x15, 0x1B, 0x7F, 0x05, 0x40, 0x47, 0xBC, 0xC5, 0x34, 0xA6, 0xB4, 0x04, 0xBB, 0x90, 0x22, 0x73,
    0x01, 0x0E, 0x3F, 0xA3, 0x27, 0x1C, 0x5E, 0xF4, 0x50, 0xCB, 0x11, 0xF1, 0x5F, 0x91, 0xCB, 0xC2,
    0xE7, 0x1B, 0x1C, 0x7A, 0x3B, 0x9A, 0xB6, 0xF7, 0xFC, 0x7B, 0xA0, 0xB4, 0xED, 0xF0, 0x54, 0xF0,
    0x30, 0x5E, 0x47, 0x32, 0x50, 0xD3, 0x0C, 0x36, 0x2D, 0x27, 0x65, 0x17, 0x6C, 0xE2, 0xAB, 0x45,
    0xD7, 0x5D, 0x2F, 0xEE, 0x14, 0x13, 0x59, 0xBE, 0xC0, 0x1E, 0x54, 0x2F, 0x6C, 0x3F, 0x50, 0x52,
    0xDD, 0xB6, 0xE4, 0x4F, 0x19, 0xF9, 0x5F, 0x44, 0xF3, 0x3C, 0xEF, 0x3E, 0xB1, 0x0F, 0x61, 0xD6,
    0xB1, 0xC9, 0x62, 0xAF, 0x2A, 0xD0, 0x14, 0x1E, 0x0E, 0x6B, 0x37, 0xA1, 0x46, 0x0D, 0xD5, 0x9B,
    0xE0, 0xCC, 0xBA, 0xAF, 0xC2, 0xBC, 0xA0, 0xDB, 0xFA, 0xDA, 0x2F, 0x05, 0x66, 0x12, 0x10, 0x51,
    0x02, 0x4A, 0xFD, 0x03, 0x00, 0x49, 0x26, 0x20, 0x23, 0xF2, 0xCE, 0x2B, 0x52, 0x41, 0x0F, 0x72,
    0x72, 0x5B, 0x4C, 0x2E, 0x1B, 0xAA, 0x65, 0xE7, 0x52, 0xC6, 0x30, 0x54, 0x3F, 0x2E, 0x0C, 0x3E,
    0x52, 0xD6, 0x3C, 0x11, 0x24, 0x0D, 0x32, 0x44, 0x3D, 0x66, 0xED, 0xE4, 0xAD, 0x5B, 0x15, 0x45,
    0x32, 0x3A, 0xB0, 0x3F, 0xE0, 0x3F, 0xFC, 0xDD, 0x05, 0xB0, 0xD0, 0xB1, 0x9E, 0x0F, 0x00, 0x61,
    0xB5, 0xBB, 0x9B, 0x1F, 0x4D, 0x2A, 0x0F, 0x4D, 0x11, 0xD5, 0x2E, 0xE4, 0x3F, 0x3F, 0xAC, 0x3B,
    0x55, 0x03, 0x74, 0x0E, 0x00, 0xF1, 0x21, 0x16, 0x5D, 0x6F, 0x31, 0x54, 0x03, 0x94, 0x51, 0xA5,
    0xFE, 0xBB, 0xAC, 0xED, 0x2B, 0xBB, 0x6E, 0x6D, 0x0C, 0xD0, 0xB0, 0x51, 0xC3, 0x23, 0x34, 0x16,
    0x22, 0xF2, 0x3B, 0x2D, 0x4E, 0x9D, 0xBE, 0xA0, 0xB5, 0x15, 0x4E, 0x32, 0x0D, 0x10, 0xA9, 0x50,
    0xAE, 0x26, 0xB2, 0x1D, 0x76, 0xD3, 0xF2, 0xFC, 0x6D, 0xB3, 0x63, 0x2C, 0x51, 0xAC, 0xD3, 0xA4,
    0xC5, 0x9A, 0xD5, 0x0C, 0x52, 0x1C, 0x3E, 0xC3, 0x16, 0x57, 0x3E, 0xA0, 0x06, 0x12, 0xFD, 0xEE,
    0xC6, 0x1B, 0x4A, 0xCB, 0xCB, 0x3E, 0xD2, 0x7D, 0xC7, 0xB3, 0x37, 0xBF, 0x3D, 0xF1, 0xE2, 0x96,
    0xE5, 0xAA, 0xCA, 0x3C, 0x26, 0x09, 0x3B, 0xF4, 0xD0, 0xD0, 0x7A, 0x4D, 0xC3, 0xEE, 0xAF, 0x61,
    0x5C, 0x2D, 0xBC, 0x0E, 0x1F, 0xE3, 0xD6, 0xD3, 0x0B, 0xD1, 0xD1, 0x4E, 0x49, 0xD5, 0x79, 0xFD,
    0xBB, 0xF3, 0x0C, 0x1F, 0xF1, 0x6E, 0x52, 0x4E, 0x3F, 0xC6, 0xBC, 0xCA, 0xE6, 0x1D, 0xB4, 0x1E,
    0xC6, 0x32, 0xAD, 0xF5, 0xB4, 0xEE, 0x54, 0x14, 0x62, 0x6B, 0xF5, 0x64, 0x41, 0x30, 0xE1, 0xB0,
    0x4B, 0xB6, 0xFE, 0x4C, 0xE3, 0xF4, 0x64, 0xAE, 0x3C, 0x1C, 0x41, 0xCC, 0x7C, 0x26, 0x3C, 0x06,
    0x14, 0x6C, 0xA5, 0xF1, 0x2D, 0x4D, 0x16, 0xD0, 0x6C, 0xDE, 0xE2, 0xF3, 0x1F, 0xF2, 0x5C, 0xB0,
    0xB3, 0x0F, 0x6B, 0xC5, 0x3C, 0x64, 0xF3, 0xCB, 0x2A, 0x44, 0xE5, 0x4F, 0xD5, 0x21, 0x7F, 0x27,
    0x3F, 0xCF, 0x2E, 0x5B, 0x7A, 0x5F, 0x1E, 0xC7, 0x46, 0x50, 0x53, 0xE2, 0xD2, 0x3D, 0x34, 0xB0,
    0x6D, 0xE5, 0x23, 0xE2, 0xF0, 0x3F, 0x5E, 0xB1, 0xF5, 0xF4, 0x6E, 0xD0, 0x99, 0x04, 0x0C, 0xF3,
    0x05, 0xB4, 0x41, 0xE6, 0xF3, 0xF5, 0xDC, 0x66, 0xC2, 0xF2, 0x5B, 0x94, 0x5D, 0xE1, 0xB2, 0x20,
    0xED, 0x62, 0x69, 0x7F, 0x5A, 0xCC, 0xD7, 0x21, 0xCF, 0xEF, 0x3D, 0xB3, 0x16, 0x0B, 0xE5, 0x19,
    0x14, 0x05, 0xEB, 0x44, 0x61, 0xEB, 0xEF, 0x34, 0xB1, 0x39, 0x01, 0x3D, 0x2F, 0x53, 0x22, 0x4B,
    0x30, 0xFA, 0x3E, 0xE3, 0x47, 0x61, 0xAE, 0x01, 0xBE, 0x67, 0xC6, 0xBF, 0xFF, 0x2C, 0xED, 0x55,
    0x44, 0x0B, 0x21, 0x75, 0x5A, 0x42, 0x6D, 0xCA, 0x5F, 0xCA, 0x30, 0x0A, 0xEB, 0x3F, 0xBA, 0x62,
    0xF7, 0x25, 0x20, 0xF1, 0xB2, 0x1A, 0x50, 0xA3, 0x7A, 0x15, 0x31, 0xBC, 0x2A, 0x40, 0x37, 0x53,
    0x7D, 0x44, 0x2D, 0x7F, 0x55, 0x0F, 0x66, 0xFE, 0xE5, 0x2D, 0xBB, 0xA2, 0xA3, 0xE4, 0x56, 0xF6,
    0xA2, 0xC1, 0xCD, 0xEC, 0x3F, 0x91, 0x1A, 0x35, 0x40, 0xB9, 0xCF, 0x32, 0x27, 0x5C, 0x54, 0x1E,
    0x02, 0x4D, 0xFE, 0xAD, 0x74, 0xFD, 0x17, 0xCB, 0x1B, 0x0D, 0x4C, 0x39, 0x55, 0x52, 0x45, 0x3C,
    0xA6, 0xBE, 0x1D, 0x02, 0xB5, 0x4A, 0x35, 0x69, 0x17, 0xBD, 0x39, 0x04, 0xB6, 0x47, 0xCC, 0x15,
    0x75, 0xB6, 0x7F, 0xE6, 0x14, 0x07, 0xDC, 0x25, 0x32, 0xF0, 0xB4, 0xEB, 0x0F, 0x5F, 0x04, 0xC9,
    0x2D, 0xA4, 0xFF, 0x6A, 0xB7, 0xF3, 0x32, 0xF2, 0x0F, 0x44, 0x1D, 0xE3, 0x04, 0xC3, 0x3F, 0xAC,
    0x10, 0x5A, 0x15, 0x40, 0xDD, 0x42, 0x3E, 0x51, 0xC7, 0xF4, 0xF6, 0x31, 0x2C, 0xAF, 0xDB, 0xCC,
    0xA1, 0x22, 0x9F, 0x61, 0xEC, 0x29, 0x0D, 0xBA, 0x30, 0x0F, 0xD7, 0x30, 0x49, 0xDE, 0xB7, 0xF3,
    0xBB, 0x4B, 0x37, 0xE2, 0xAB, 0xCF, 0xE5, 0xF7, 0xE5, 0xCA, 0x40, 0x2F, 0x6E, 0x42, 0x21, 0x4D,
    0xC4, 0xF2, 0x01, 0x30, 0x5B, 0xD3, 0x62, 0xF4, 0xAA, 0x32, 0xF0, 0x45, 0xF3, 0x14, 0x6F, 0x7A,
    0xDB, 0xF5, 0x21, 0xF2, 0x01, 0x21, 0xAD, 0xB6, 0x0B, 0x5F, 0xBA, 0xEA, 0x0A, 0x51, 0xC2, 0xC6,
    0x16, 0xD5, 0x0B, 0xCE, 0xB3, 0x5E, 0xBD, 0xCC, 0xC1, 0x63, 0xA7, 0x14, 0x43, 0x54, 0xE1, 0xC5,
    0x6C, 0x3E, 0x41, 0x3B, 0xDC, 0xDB, 0xA6, 0xC2, 0xDB, 0x1D, 0x1F, 0x31, 0xCC, 0x23, 0x02, 0x21,
    0xA5, 0xBC, 0x51, 0x27, 0xC6, 0x56, 0x12, 0xCD, 0x24, 0xBB, 0x17, 0x74, 0x2C, 0x0B, 0x56, 0xC0,
    0x4F, 0x4E, 0x01, 0x64, 0x66, 0x53, 0x42, 0xCF, 0xBD, 0xC3, 0xCB, 0x6A, 0x14, 0x4E, 0x5B, 0xC3,
    0x26, 0x1B, 0x06, 0xC5, 0x44, 0x41, 0x4D, 0xAA, 0xD7, 0x0F, 0x2F, 0x3A, 0x41, 0xFD, 0xC5, 0x92,
    0xD2, 0x2D, 0x1D, 0xB6, 0xED, 0x69, 0x64, 0xFC, 0xD2, 0x1B, 0x45, 0x2F, 0xF9, 0xAC, 0x6E, 0x63,
    0x43, 0xB3, 0x1F, 0x05, 0xED, 0x0E, 0x24, 0x05, 0x5D, 0x3C, 0x5A, 0xFC, 0xEE, 0xF3, 0x66, 0x24,
    0x7E, 0x64, 0xBB, 0x14, 0x4D, 0xB6, 0x96, 0x5E, 0x0A, 0xCB, 0x15, 0x31, 0xE4, 0xEB, 0xD4, 0xAB,
    0xAB, 0xEA, 0x05, 0xED, 0x00, 0x39, 0x54, 0x67, 0x20, 0x53, 0x66, 0xD0, 0xA9, 0xCE, 0x51, 0x70,
    0x79, 0xB4, 0xEF, 0x33, 0xED, 0x43, 0xBE, 0xE0, 0xDF, 0x1B, 0x52, 0x43, 0xA6, 0x75, 0x6C, 0xCF,
    0xFB, 0x2A, 0x52, 0xC9, 0xD2, 0x1E, 0xF6, 0x54, 0xF0, 0xEF, 0x61, 0xA6, 0x01, 0x39, 0x60, 0xE9,
    0x64, 0xCD, 0x22, 0x63, 0xBC, 0x2D, 0xAD, 0x5D, 0x2A, 0xED, 0xCE, 0xCF, 0x5E, 0xA0, 0xB4, 0xDA,
    0xB1, 0x23, 0xEA, 0xC3, 0x24, 0x6C, 0x1B, 0xCF, 0x04, 0x4B, 0xF0, 0x92, 0x0F, 0xDA, 0x32, 0x0C,
    0x45, 0xC6, 0x5B, 0xE6, 0x5E, 0x2B, 0x0D, 0x53, 0x65, 0x0A, 0xAF, 0xDB, 0x43, 0xCE, 0xE4, 0xBB,
    0x3F, 0x9C, 0x23, 0xDC, 0x35, 0x64, 0x55, 0x31, 0xFF, 0x2A, 0x2D, 0x60, 0xB1, 0x4D, 0x1B, 0x26,
    0x6F, 0x13, 0xBE, 0xE0, 0xA1, 0x4E, 0x70, 0xFD, 0xC1, 0x26, 0x40, 0x56, 0x4C, 0x2F, 0xBB, 0x3E,
    0x3A, 0x02, 0xA3, 0xE2, 0x40, 0x19, 0xC0, 0xEC, 0x13, 0xF1, 0x6D, 0x30, 0x9E, 0xE1, 0x6F, 0x14,
    0xFF, 0x4B, 0x30, 0xEC, 0xD0, 0xDC, 0xDB, 0x2A, 0x93, 0x55, 0xDC, 0x15, 0xCD, 0x3E, 0xFB, 0xCA,
    0xC4, 0x31, 0xD6, 0x2D, 0x51, 0x25, 0x15, 0x49, 0x7B, 0x6B, 0x2F, 0xC9, 0xB5, 0x31, 0x5E, 0x5E,
    0x59, 0xFF, 0x07, 0xAE, 0x5C, 0x3E, 0x6E, 0xA1, 0xD4, 0xB4, 0xEC, 0xBE, 0x7E, 0x46, 0xD0, 0x29,
    0x94, 0xFB, 0x25, 0x6F, 0x46, 0x43, 0xB4, 0xC0, 0xF6, 0xE5, 0xDA, 0x9E, 0xB4, 0x24, 0xF5, 0xAB,
    0x67, 0xEE, 0xFC, 0x10, 0x4F, 0x5E, 0xC6, 0xDB, 0x33, 0x6F, 0xF4, 0xC3, 0xEC, 0xA3, 0xC3, 0x35,
    0xB3, 0xEE, 0xCA, 0xAF, 0xCB, 0x1B, 0xCD, 0xAF, 0x45, 0x1C, 0xBE, 0x03, 0xB5, 0x35, 0x1D, 0xFE,
    0xF5, 0x4E, 0xBF, 0x52, 0x09, 0xB9, 0x3A, 0xC4, 0x73, 0x33, 0x26, 0x64, 0x26, 0xD7, 0x3F, 0xB4,
    0x5C, 0x4B, 0xE2, 0xE1, 0xBF, 0x3F, 0xC4, 0xB0, 0x46, 0x90, 0x72, 0x43, 0x7C, 0x02, 0x70, 0x60,
    0x34, 0xD5, 0xDF, 0x4D, 0x7A, 0x52, 0x57, 0x34, 0xFB, 0xFD, 0xCE, 0xD0, 0xED, 0x6E, 0x7A, 0x2F,
    0xC0, 0xEB, 0xAD, 0xE3, 0xF1, 0xFB, 0x1B, 0xE6, 0x1F, 0x07, 0xFF, 0xB1, 0x3C, 0xA5, 0xF2, 0x43,
    0x2D, 0xB1, 0xD5, 0xE4, 0xDD, 0xEF, 0x12, 0xAE, 0x3A, 0xD0, 0x7F, 0xB9, 0x6A, 0x31, 0x61, 0x61,
    0xB3, 0xCD, 0xB0, 0x33, 0xC1, 0x23, 0x5B, 0x94, 0xF3, 0x4A, 0xE6, 0x67, 0x1A, 0x79, 0x3B, 0xB6,
    0x06, 0xB3, 0x02, 0xB3, 0xA4, 0x29, 0xA4, 0x24, 0x0B, 0x25, 0xF3, 0x9A, 0xE2, 0x7B, 0xA0, 0x09,
    0x43, 0xF9, 0x59, 0x7C, 0x3C, 0xE4, 0x3B, 0xFC, 0xB2, 0xD9, 0xAD, 0xD1, 0x30, 0xB2, 0x03, 0xCA,
    0xE1, 0x27, 0x3B, 0xE4, 0xCB, 0x17, 0x4B, 0x5C, 0x75, 0x16, 0x4F, 0x0B, 0xDC, 0xFE, 0x4D, 0x50,
    0xAC, 0x3B, 0x5F, 0x44, 0xBB, 0xC3, 0x11, 0x5F, 0x9E, 0x63, 0xD0, 0xA4, 0x5B, 0x41, 0x52, 0xDE,
    0x4D, 0xF0, 0xA7, 0x1A, 0x36, 0x0F, 0x31, 0x4E, 0x06, 0x4B, 0xFC, 0xDC, 0xBC, 0xD4, 0x1A, 0xA5,
    0x62, 0x4C, 0x9B, 0xF2, 0xBF, 0xE0, 0xD2, 0xA4, 0xEC, 0xD3, 0x4E, 0xF6, 0xF3, 0xA0, 0xDB, 0xF9,
    0xA2, 0xB0, 0xFF, 0xF1, 0xB7, 0x97, 0xD5, 0x43, 0x4B, 0x23, 0x9B, 0xA6, 0x46, 0xDC, 0x0C, 0xD0,
    0x2B, 0xF0, 0xE9, 0x59, 0x4C, 0xBC, 0x0C, 0x1A, 0x70, 0x11, 0xAE, 0x9B, 0xFE, 0x65, 0xB7, 0x70,
    0xE3, 0xEB, 0xC5, 0x2F, 0xA0, 0xB2, 0x03, 0x7F, 0xC6, 0xCE, 0x6D, 0xB3, 0xAA, 0xCD, 0x50, 0x60,
    0x23, 0x6C, 0xEC, 0x5F, 0x57, 0xAA, 0xE3, 0xEF, 0xEE, 0xAB, 0x2E, 0x64, 0xE6, 0x3C, 0x6A, 0x0D,
    0xC3, 0xF4, 0xD2, 0x5E, 0xC6, 0xB6, 0xA7, 0x55, 0x0F, 0xF1, 0x1E, 0xCC, 0x20, 0x54, 0xFB, 0xD1,
    0xBD, 0x1F, 0x66, 0xCB, 0x11, 0x4E, 0x5E, 0xB2, 0xCF, 0xE3, 0x1E, 0x47, 0x0E, 0xDB, 0x7D, 0xAB,
    0xB4, 0x6F, 0x36, 0x6F, 0xD3, 0x13, 0xD3, 0xEA, 0xB3, 0xD6, 0x70, 0xB6, 0x51, 0xC4, 0x22, 0xA1,
    0x5B, 0x9E, 0xE3, 0xD4, 0xD2, 0xD0, 0x6A, 0xEB, 0x61, 0x00, 0x7B, 0x77, 0x05, 0x4B, 0xFB, 0xA6,
    0xE4, 0x72, 0xEA, 0x43, 0xEC, 0xBE, 0xBD, 0xD7, 0x94, 0x3B, 0x56, 0xF5, 0xF2, 0xA1, 0xA7, 0x62,
    0x55, 0x35, 0x3F, 0x1B, 0x45, 0xB1, 0x4B, 0x33, 0x15, 0xC3, 0x2D, 0x75, 0x05, 0x3B, 0xA1, 0x7B,
    0x07, 0xD3, 0x0F, 0x63, 0xCA, 0xEC, 0x6E, 0xBB, 0x06, 0x1A, 0x4B, 0x5C, 0x6F, 0xB0, 0x20, 0xF3,
    0xFB, 0x3D, 0x0C, 0xDC, 0xEF, 0x57, 0x39, 0xB3, 0xA2, 0xAA, 0xAE, 0x54, 0x1E, 0xBD, 0xF7, 0x15,
    0x2D, 0x2E, 0x23, 0x55, 0xCD, 0x42, 0xF9, 0x3E, 0x40, 0xBC, 0xAD, 0x41, 0x6B, 0x91, 0xB6, 0xAF,
    0x35, 0x64, 0xC3, 0xD0, 0x24, 0x59, 0x1F, 0xC0, 0xBD, 0xFD, 0x63, 0x49, 0x36, 0x26, 0xB5, 0x69,
    0x26, 0xCA, 0x65, 0x3C, 0x19, 0xE0, 0x4E, 0xC4, 0xFD, 0xC2, 0x5B, 0x61, 0xFE, 0xA1, 0x52, 0xC3,
    0xEE, 0x21, 0x01, 0xEF, 0x05, 0x9F, 0xA3, 0xD1, 0x3C, 0xC9, 0x41, 0xD7, 0xD3, 0xD2, 0xBF, 0x2F,
    0xA3, 0x94, 0xCA, 0x7B, 0x2E, 0x05, 0xF0, 0x9C, 0x4D, 0xF2, 0xDB, 0x13, 0xFF, 0x10, 0xD6, 0xC6,
    0xD4, 0xF3, 0x51, 0x6A, 0x37, 0x6E, 0xBC, 0x40, 0x53, 0xB5, 0x1C, 0x04, 0x7F, 0x7C, 0x21, 0xE4,
    0xEE, 0xF0, 0xD0, 0x66, 0xF6, 0x46, 0x3D, 0xE3, 0x5F, 0x9A, 0xB6, 0xBF, 0x4B, 0xDF, 0xE9, 0x1F,
    0x29, 0x92, 0x23, 0x44, 0x4D, 0xBA, 0x6B, 0x3C, 0x50, 0x35, 0xC6, 0x51, 0xC4, 0x04, 0x15, 0x57,
    0xDF, 0xC4, 0xBC, 0x15, 0x5E, 0xCB, 0xA5, 0x41, 0xB6, 0x52, 0xE1, 0x4D, 0x24, 0x35, 0x4F, 0xF2,
    0x5F, 0x99, 0xC7, 0xBC, 0x0C, 0xCE, 0xA5, 0x45, 0xC2, 0x0E, 0x7F, 0xBD, 0x12, 0xBF, 0xB6, 0xAF,
    0x2D, 0x51, 0x34, 0x9D, 0xC4, 0x0A, 0x1B, 0x7E, 0xF2, 0x77, 0x5E, 0xF4, 0x55, 0x3B, 0xA7, 0x2B,
    0x93, 0x3E, 0xF0, 0x7F, 0x00, 0xD9, 0x64, 0x65, 0xDD, 0xA2, 0xE9, 0x1C, 0x6C, 0xC0, 0x34, 0xEC,
    0xF1, 0x71, 0xC3, 0x27, 0x97, 0xAD, 0x23, 0x23, 0xBF, 0xE5, 0x0B, 0xA0, 0x00, 0x33, 0x31, 0xBB,
    0x5B, 0xF9, 0xAA, 0x60, 0x11, 0xE1, 0xD4, 0xF2, 0x31, 0xBD, 0xFA, 0xF3, 0x70, 0xBA, 0x2C, 0x2B,
    0x47, 0xCC, 0x43, 0xD6, 0x11, 0x1D, 0xA0, 0x1C, 0x23, 0x6B, 0xEB, 0xFC, 0x51, 0xB1, 0x01, 0xAB,
    0xE2, 0xDD, 0xE1, 0x16, 0x31, 0x9A, 0x31, 0x11, 0xE2, 0xB4, 0xD3, 0x33, 0xE0, 0x6D, 0x04, 0xA9,
    0x27, 0xF0, 0x65, 0x96, 0x5A, 0x0B, 0xF2, 0xEB, 0xDE, 0x7D, 0x6F, 0x45, 0x00, 0xE6, 0x37, 0xA3,
    0xFB, 0x42, 0x99, 0xA0, 0xA0, 0x1E, 0x13, 0xFE, 0xB2, 0xA6, 0x50, 0xCB, 0x7C, 0xF5, 0x4F, 0xEE,
    0xC0, 0x01, 0xD4, 0xE2, 0xDA, 0x05, 0xD9, 0x77, 0x39, 0x4C, 0x91, 0x5F, 0x1F, 0x3B, 0xFF, 0x3C,
    0xE4, 0x79, 0x00, 0xC7, 0x4E, 0x75, 0xE1, 0x53, 0x33, 0x91, 0x2C, 0xAA, 0x10, 0xE2, 0xDD, 0x42,
    0x0F, 0xC1, 0x05, 0xA1, 0xF3, 0x0B, 0xDB, 0x4C, 0xC2, 0x42, 0x0E, 0x43, 0x51, 0xA6, 0xCC, 0x5D,
    0x34, 0x0D, 0xBC, 0x36, 0x43, 0x77, 0x96, 0xA5, 0x2F, 0x36, 0xBE, 0x4B, 0x1D, 0xC1, 0xCA, 0x02,
    0x07, 0x56, 0x5B, 0x37, 0x51, 0x50, 0xB1, 0xBF, 0xD2, 0x6B, 0x06, 0x6C, 0x75, 0x1D, 0xB0, 0x2E,
    0x1B, 0x32, 0x3F, 0x06, 0x0B, 0x4E, 0x66, 0x0E, 0x10, 0xDB, 0x2E, 0x30, 0x1E, 0x93, 0x9C, 0xF1,
    0x72, 0xD3, 0xBD, 0x75, 0x1D, 0xF5, 0x3D, 0x11, 0xAB, 0x5D, 0x1C, 0x4D, 0xF6, 0xAA, 0xD5, 0x2F,
    0x65, 0xD4, 0xBD, 0xA7, 0x7B, 0xD0, 0x1D, 0x1A, 0xAE, 0x02, 0xD5, 0x25, 0xCC, 0xD4, 0x0F, 0x0B,
    0xF5, 0x6E, 0x4F, 0x67, 0xE2, 0x32, 0x7E, 0xA7, 0x55, 0x2D, 0xA5, 0xA1, 0x0D, 0xBD, 0xC0, 0xEB,
    0x01, 0xEE, 0x40, 0x5A, 0xB3, 0x91, 0x1E, 0x49, 0x91, 0x10, 0x05, 0x06, 0x0E, 0x27, 0x2C, 0xB0,
    0x03, 0x7D, 0xCA, 0xFF, 0xF5, 0x06, 0xC3, 0x61, 0xD2, 0xD5, 0x4D, 0x11, 0xD1, 0x40, 0x20, 0xFA,
    0x30, 0xA2, 0xBC, 0xB2, 0xE5, 0x0D, 0x51, 0x23, 0x45, 0x7D, 0x0D, 0xD2, 0x0F, 0xBC, 0x2D, 0xFA,
    0x1D, 0xFD, 0x56, 0xA9, 0x05, 0x43, 0x3F, 0xA4, 0xBF, 0x92, 0x5A, 0x26, 0xAC, 0xE3, 0xB2, 0x39,
    0xDF, 0x7A, 0x10, 0x36, 0xD0, 0x13, 0x46, 0x1D, 0xB4, 0xF9, 0xB0, 0x36, 0x6A, 0xCA, 0x43, 0xEE,
    0x94, 0x1D, 0x71, 0x2A, 0xD3, 0xAE, 0x1D, 0x53, 0xB3, 0xED, 0xAA, 0x1F, 0xD0, 0xD2, 0xEE, 0xFC,
    0x26, 0x6D, 0x2E, 0x5F, 0xBF, 0xA6, 0x69, 0x7B, 0xC0, 0x35, 0x4B, 0xA5, 0x6A, 0x71, 0xE0, 0x04,
    0x7E, 0xF1, 0x44, 0x2F, 0x22, 0x61, 0x1C, 0xC6, 0xD5, 0xA5, 0xD5, 0x7C, 0xD1, 0xF1, 0x32, 0xBF,
    0x1E, 0xBB, 0xC1, 0x30, 0xD6, 0x31, 0xB7, 0x26, 0xAB, 0x7B, 0x2A, 0xC6, 0x30, 0x5C, 0x31, 0xE0,
    0xB4, 0x4F, 0xA6, 0x0B, 0x44, 0x42, 0xDD, 0xA4, 0xF9, 0xC1, 0xDD, 0x33, 0xA6, 0xB5, 0x0C, 0x7B,
    0x53, 0xCE, 0xEE, 0x11, 0xF4, 0x31, 0x3F, 0x51, 0xC2, 0x20, 0xB2, 0xAC, 0xF3, 0x0C, 0x11, 0xBF,
    0xEB, 0x33, 0xD7, 0x6E, 0x2F, 0xDE, 0xDC, 0xA6, 0x6C, 0x4B, 0x1B, 0x4B, 0xFD, 0xA0, 0x65, 0xB1,
    0x60, 0xB5, 0x3B, 0x1B, 0x3A, 0x12, 0x1D, 0xAB, 0xD0, 0xCF, 0x06, 0x11, 0x70, 0x4C, 0x20, 0x1D,
    0x34, 0x03, 0xBF, 0x3D, 0xB0, 0xB4, 0x2A, 0xFD, 0xB4, 0x56, 0xCC, 0x0C, 0x0E, 0x50, 0xE5, 0x07,
    0x5F, 0x5D, 0xCA, 0x53, 0x51, 0x41, 0x96, 0xC4, 0x06, 0x23, 0x94, 0xA6, 0x4A, 0x77, 0x25, 0xF4,
    0x7F, 0xD7, 0x5D, 0xE3, 0xAF, 0xFD, 0x50, 0xC6, 0x93, 0x70, 0xBA, 0xD0, 0x22, 0x3A, 0x5C, 0xD4,
    0xC5, 0x1C, 0xF6, 0x4E, 0x3C, 0xCD, 0xDE, 0xDA, 0x3D, 0x5F, 0xFD, 0x6A, 0x6A, 0x0C, 0x77, 0x0D,
    0xBE, 0x5A, 0x55, 0x6C, 0x2F, 0xC5, 0xFC, 0xA7, 0x2E, 0xB3, 0x57, 0xEE, 0xBE, 0xEC, 0x95, 0xC6,
    0x9C, 0xDA, 0xD3, 0x5E, 0xD2, 0xFC, 0xE3, 0x41, 0x05, 0x2D, 0x46, 0xAB, 0xBB, 0x0B, 0x2C, 0xF4,
    0x2F, 0x04, 0x63, 0x4A, 0x10, 0xA7, 0x6A, 0x9D, 0xD2, 0xEE, 0x7A, 0xAE, 0x46, 0xB3, 0xE0, 0xFE,
    0x32, 0xE6, 0x7B, 0xC5, 0x17, 0x05, 0x5A, 0xCF, 0x26, 0xB5, 0x53, 0xC3, 0x75, 0x51, 0xFD, 0x5C,
    0x26, 0x4E, 0xB5, 0x42, 0xFB, 0x3C, 0x4B, 0xFE, 0xDE, 0x04, 0x7F, 0x2C, 0x67, 0xF1, 0x49, 0xF7,
    0x1A, 0x5D, 0x94, 0x7E, 0x06, 0xA0, 0x39, 0x44, 0x76, 0x4D, 0x1C, 0x4D, 0xEF, 0x03, 0x4A, 0x37,
    0x1F, 0xB3, 0xF3, 0x3E, 0x5D, 0xFE, 0xE3, 0x21, 0x30, 0x17, 0xDF, 0xE1, 0x30, 0x61, 0xBD, 0x3C,
    0x4D, 0xBC, 0x1E, 0xEF, 0x61, 0x4E, 0x63, 0x3A, 0xDC, 0xCE, 0x02, 0xF6, 0xAB, 0x34, 0xB0, 0x0E,
    0xBE, 0x15, 0xBB, 0x3F, 0xA3, 0x11, 0x6D, 0x29, 0x7E, 0x66, 0xDF, 0xA3, 0x7E, 0x67, 0xDF, 0xAD,
    0xAC, 0x22, 0xE5, 0x65, 0x17, 0x1C, 0x0B, 0x40, 0xC2, 0x3F, 0x24, 0x19, 0x55, 0xF6, 0xA1, 0x3A,
    0xC6, 0xC9, 0xFB, 0xCE, 0x25, 0x0B, 0xEE, 0x1C, 0x4B, 0xE1, 0xFD, 0x2B, 0x1F, 0x72, 0x67, 0x2B,
    0x20, 0x10, 0x4F, 0x2B, 0x7D, 0xEF, 0x4F, 0x16, 0x35, 0x32, 0xDF, 0xFB, 0x7F, 0x03, 0xED, 0x7F,
    0xC7, 0x77, 0x50, 0xD6, 0x6C, 0x47, 0xF9, 0x0C, 0xAD, 0xB1, 0x02, 0x63, 0x2F, 0xDC, 0xEF, 0xCB,
    0x27, 0x5C, 0xD6, 0xF1, 0x3F, 0xFA, 0x52, 0x55, 0x2F, 0xDD, 0x75, 0xE3, 0xAA, 0x5C, 0xF5, 0x3F,
    0x57, 0xB3, 0x3D, 0xE1, 0x00, 0xAE, 0x40, 0xBB, 0xF0, 0x5C, 0xE2, 0x50, 0x0F, 0xD5, 0xBB, 0x45,
    0x25, 0x11, 0xD6, 0xBC, 0x4B, 0x46, 0xFC, 0x3C, 0xCA, 0xCA, 0x53, 0xF3, 0xF0, 0x5C, 0x66, 0x33,
    0xC7, 0x12, 0xD5, 0x75, 0x36, 0x5E, 0xE2, 0x32, 0xDB, 0x5B, 0xDF, 0x2B, 0x76, 0x23, 0xE6, 0x1C,
    0xDB, 0x26, 0x5A, 0xE2, 0xFB, 0x4D, 0xCD, 0x31, 0x52, 0x4F, 0x23, 0x1C, 0x75, 0x7E, 0x0A, 0x42,
    0x2F, 0x20, 0xFC, 0x0E, 0xC1, 0x52, 0x2F, 0xB5, 0xB5, 0x00, 0x61, 0x05, 0x5A, 0xC6, 0xB7, 0x5A,
    0x1D, 0x55, 0xD3, 0x43, 0x06, 0xB7, 0xB1, 0x1F, 0x46, 0xF0, 0x10, 0x0C, 0x14, 0x25, 0x31, 0x64,
    0x77, 0x40, 0xFD, 0xE0, 0x25, 0xF0, 0x9B, 0x52, 0x5C, 0x34, 0xA0, 0xE1, 0xCF, 0xD4, 0xA2, 0x10,
    0xB4, 0x52, 0xBC, 0x2C, 0xEE, 0xDB, 0x61, 0x1B, 0x73, 0x22, 0xBA, 0x62, 0x6B, 0x43, 0x01, 0xD5,
    0x34, 0x15, 0xCD, 0x37, 0x57, 0x9D, 0xCC, 0xD7, 0xD0, 0x04, 0x20, 0x07, 0x65, 0xD2, 0x73, 0xCF,
    0xF2, 0xA6, 0x7B, 0x2C, 0xA2, 0x22, 0xB7, 0x74, 0x4E, 0xD0, 0x02, 0xCF, 0xD6, 0x0A, 0x35, 0xD4,
    0xBA, 0x50, 0x3F, 0xFE, 0x42, 0x7F, 0xE0, 0xEB, 0x41, 0xFF, 0x42, 0x4F, 0x1C, 0x31, 0x9A, 0x44,
    0xFC, 0xF3, 0x0D, 0xE7, 0xDA, 0x47, 0x2D, 0xF6, 0xB1, 0x4A, 0xB4, 0xBE, 0xB3, 0xBA, 0xD4, 0x69,
    0xD2, 0x3A, 0xAA, 0xAF, 0x4B, 0xB0, 0xF3, 0xBF, 0xA5, 0xB1, 0xF1, 0xCC, 0x1D, 0x75, 0x1D, 0x71,
    0x0F, 0x75, 0x50, 0x32, 0xD4, 0x6C, 0x7D, 0xE5, 0xC5, 0xF1, 0xCF, 0xB2, 0xAE, 0x4C, 0x4B, 0xE5,
    0x6A, 0x53, 0xEE, 0x4D, 0x60, 0x50, 0x32, 0x1E, 0xC5, 0x50, 0x73, 0x00, 0xCF, 0x51, 0x23, 0xBD,
    0x16, 0xFF, 0x50, 0xDF, 0x24, 0x44, 0x4E, 0x0C, 0xDA, 0x21, 0x5D, 0x3A, 0xCC, 0x14, 0x15, 0x33,
    0x25, 0xC1, 0xC4, 0xED, 0x36, 0x6E, 0x3C, 0x25, 0xBB, 0xD2, 0xAE, 0x62, 0xB1, 0x36, 0x24, 0xFB,
    0x36, 0x32, 0xA6, 0x1D, 0x43, 0x73, 0x0A, 0x3F, 0xED, 0x4A, 0xCF, 0x32, 0x3C, 0x36, 0xAD, 0x0E,
    0x4C, 0x76, 0x3F, 0x6F, 0x46, 0xC2, 0xA2, 0x16, 0xAA, 0xCC, 0x10, 0x35, 0xF3, 0x31, 0x67, 0x74,
    0x37, 0xE6, 0x02, 0x2C, 0xDC, 0x6B, 0x5E, 0xF2, 0xDE, 0xE2, 0xB1, 0xC0, 0xE4, 0xAE, 0x74, 0x25,
    0x55, 0x77, 0x1F, 0x22, 0xF3, 0x35, 0x05, 0xD2, 0x14, 0x4A, 0xDF, 0xCD, 0xE1, 0xB4, 0x66, 0x6A,
    0xBB, 0x2A, 0x2A, 0xCA, 0xF6, 0x10, 0xE1, 0xB3, 0x30, 0x2F, 0x54, 0xF3, 0x33, 0xE1, 0x55, 0x76,
    0x73, 0x3A, 0xD1, 0x41, 0xF5, 0xFF, 0x4F, 0x24, 0xAF, 0x31, 0x26, 0xDA, 0x54, 0x3A, 0x01, 0x02,
    0x4B, 0x49, 0x1F, 0xF2, 0xFE, 0x6B, 0x6C, 0x0E, 0x76, 0x25, 0xE5, 0x4C, 0xA1, 0xA4, 0x15, 0x54,
    0xC7, 0x2D, 0xF2, 0xA2, 0xF4, 0xA1, 0x07, 0xFB, 0x4C, 0xB2, 0x52, 0xFC, 0x6D, 0x0B, 0xC6, 0x2C,
    0x1F, 0xA3, 0x4D, 0xCA, 0x65, 0xB1, 0x21, 0x5A, 0x70, 0xB6, 0xCD, 0xDF, 0xEA, 0x25, 0xE0, 0xBD,
    0xD5, 0x13, 0x46, 0x30, 0x2F, 0xA6, 0xA6, 0x5F, 0xF2, 0x61, 0x76, 0x4D, 0x4E, 0x7A, 0x22, 0xB7,
    0xEF, 0x22, 0xF5, 0xDC, 0xE4, 0x2E, 0x74, 0x06, 0x5E, 0xD4, 0x56, 0xB6, 0xEE, 0xA7, 0x53, 0x3B,
    0xB6, 0x6E, 0x33, 0x1F, 0x45, 0x6D, 0x0D, 0xB7, 0x3F, 0x7B, 0x45, 0xB6, 0xAD, 0x0C, 0x4F, 0x03,
    0x16, 0x21, 0x1E, 0xB1, 0x3D, 0x60, 0x50, 0xD0, 0xFB, 0x54, 0x6E, 0x2A, 0x06, 0xF7, 0xB0, 0x5B,
    0xDD, 0xDC, 0xAD, 0xC0, 0x06, 0x1B, 0xCD, 0x1D, 0x92, 0xB1, 0x5E, 0xF1, 0xC6, 0xF5, 0x56, 0xD4,
    0xC4, 0x6A, 0x6D, 0xF2, 0xC4, 0x5D, 0xEC, 0x02, 0xB2, 0x07, 0x7B, 0xE6, 0xD2, 0x6F, 0xC4, 0xB2,
    0x11, 0x3D, 0xD6, 0x2D, 0x15, 0x1B, 0xA5, 0x5C, 0x57, 0xEA, 0xF0, 0x4C, 0x73, 0xCE, 0xD2, 0x7B,
    0x46, 0xCC, 0xE6, 0x7C, 0xD0, 0x5C, 0xF1, 0x1E, 0x4B, 0xED, 0x73, 0xAD, 0x1D, 0x30, 0x0D, 0xE4,
    0xE7, 0x64, 0x47, 0x76, 0x1C, 0xDA, 0x0D, 0x0E, 0xCE, 0x75, 0xEB, 0x56, 0x04, 0xC3, 0x7E, 0x7F,
    0x7C, 0xD6, 0x4A, 0xF4, 0x36, 0xE5, 0xE4, 0xD1, 0x6A, 0xE5, 0x53, 0x27, 0x15, 0x0D, 0x20, 0x44,
    0xCA, 0x60, 0xF6, 0xB1, 0xD2, 0x46, 0x06, 0xF2, 0x52, 0xA3, 0xAD, 0x01, 0x34, 0x14, 0x41, 0x15,
    0xEA, 0x55, 0xD0, 0x43, 0x2A, 0xBC, 0xC6, 0xCA, 0xA1, 0x6E, 0xDF, 0x0A, 0x0B, 0x2E, 0xDB, 0x63,
    0x0F, 0x94, 0x0A, 0x5F, 0x0F, 0xF0, 0x5A, 0xCC, 0x37, 0xB0, 0xBE, 0x2C, 0x51, 0xED, 0x6D, 0x50,
    0xC5, 0x13, 0x75, 0xD1, 0x05, 0x45, 0x13, 0x3B, 0xDA, 0x3D, 0xDB, 0xF1, 0x90, 0x0B, 0xF3, 0xBC,
    0x1E, 0xBE, 0xD5, 0x02, 0x6B, 0x27, 0xB2, 0x15, 0xF2, 0x52, 0x2B, 0x4D, 0xFD, 0x22, 0x1F, 0x54,
    0x3F, 0x50, 0x67, 0x02, 0x99, 0x15, 0x2C, 0xD4, 0xBE, 0x51, 0x21, 0xA2, 0x3B, 0xDD, 0x7F, 0x42,
    0x66, 0xD7, 0xAF, 0x4F, 0xC5, 0x25, 0xC0, 0xE0, 0xF1, 0x05, 0x2E, 0xDB, 0x2E, 0x4B, 0x25, 0x5A,
    0xFA, 0x5C, 0xA3, 0x6E, 0x32, 0x34, 0x2A, 0x17, 0x9D, 0xCB, 0x43, 0x00, 0x1A, 0x5C, 0xAB, 0x04,
    0x27, 0xE0, 0xF9, 0x30, 0x30, 0x03, 0x21, 0xBD, 0x0F, 0xE1, 0xD5, 0x00, 0x64, 0xBE, 0xFA, 0xC0,
    0xB3, 0x23, 0xBF, 0x00, 0x5E, 0xFD, 0xA4, 0x1F, 0xC1, 0x65, 0xB0, 0xEE, 0x2A, 0x7A, 0x5A, 0xF4,
    0x77, 0x55, 0x75, 0xBF, 0x2D, 0x4C, 0xC1, 0xCD, 0xC6, 0xC4, 0x72, 0xD3, 0xBC, 0x06, 0x4C, 0x46,
    0x7E, 0x09, 0xDC, 0xB3, 0xB1, 0x3C, 0x53, 0xE0, 0xCD, 0x0F, 0xA0, 0x2A, 0x2B, 0xCA, 0x54, 0x37,
    0x25, 0xDE, 0x4E, 0x11, 0xDE, 0xFD, 0xF7, 0xC6, 0x30, 0x5D, 0xE2, 0x32, 0x22, 0x6C, 0x45, 0xB1,
    0xE4, 0xFB, 0xFD, 0xE4, 0xB5, 0xD0, 0xD3, 0x3E, 0x32, 0x4A, 0x20, 0xE7, 0x1D, 0x24, 0xFF, 0xC7,
    0x01, 0x15, 0x65, 0xA0, 0x70, 0xFA, 0x1F, 0x6E, 0x5D, 0xFD, 0x26, 0x6C, 0x1E, 0xF6, 0xC3, 0x49,
    0x03, 0x06, 0xE5, 0xE1, 0xED, 0xDD, 0xCD, 0x36, 0xF0, 0xC2, 0xFF, 0xA7, 0x2B, 0x2C, 0x2D, 0xFE,
    0x14, 0xD4, 0x4B, 0xE0, 0xAB, 0x4D, 0xBF, 0x56, 0xCB, 0xEA, 0x02, 0x05, 0xF4, 0x35, 0x51, 0xB6,
    0x42, 0xED, 0x00, 0x1D, 0x30, 0xBA, 0x01, 0x30, 0xC7, 0x27, 0x09, 0x05, 0x3A, 0x30, 0x45, 0xDE,
    0x5F, 0x09, 0xD4, 0xAB, 0xD6, 0x61, 0x1E, 0xD6, 0x5D, 0x41, 0x3D, 0xDB, 0x2D, 0xFE, 0x15, 0x19,
    0xEF, 0x5A, 0xA5, 0x0E, 0xDF, 0x35, 0x4A, 0x3A, 0xB2, 0x63, 0x0A, 0x47, 0xED, 0x0C, 0xE4, 0x6F,
    0x31, 0x0E, 0x45, 0x43, 0x1D, 0x35, 0x5F, 0xBE, 0x70, 0x4A, 0xC5, 0x27, 0xC5, 0xFE, 0x6D, 0x2A,
    0xEA, 0xB4, 0xF2, 0x04, 0x72, 0xF4, 0xDF, 0x6B, 0xEB, 0x0B, 0x1E, 0xCB, 0xC6, 0xCC, 0x6D, 0xE2,
    0x21, 0x7A, 0x75, 0x2A, 0x6E, 0x05, 0x2F, 0xE9, 0x64, 0x06, 0x2E, 0xC6, 0xD3, 0xDC, 0xAE, 0xA0,
    0x7C, 0xE6, 0x64, 0xE5, 0x5C, 0x21, 0x50, 0xAD, 0x7D, 0x3D, 0xDF, 0x5A, 0xEC, 0xF2, 0xB4, 0x12,
    0xF0, 0x6F, 0x52, 0xB0, 0xFE, 0xF1, 0x75, 0x32, 0x46, 0xBE, 0x06, 0x3A, 0x06, 0x4F, 0xDC, 0x11,
    0x2F, 0x35, 0xBF, 0x41, 0x03, 0x44, 0xD4, 0xD2, 0xDF, 0xAC, 0x01, 0xAF, 0xA3, 0x9C, 0xCB, 0xB2,
    0x2E, 0xC7, 0xC3, 0x25, 0x0A, 0x12, 0x51, 0xE5, 0x2C, 0x63, 0x4F, 0xF1, 0x34, 0x6D, 0xEA, 0xB2,
    0xE9, 0x43, 0xE3, 0x75, 0xB3, 0x14, 0xCC, 0x2F, 0x3A, 0xC7, 0xC3, 0xBE, 0xB6, 0xBD, 0x17, 0xDD,
    0x04, 0x1D, 0xFE, 0xBB, 0xFB, 0x44, 0xF4, 0x92, 0x6A, 0xEF, 0xFB, 0x5B, 0x32, 0xE1, 0x1D, 0xAF,
    0x61, 0x71, 0x5D, 0x61, 0xA1, 0x1D, 0xF5, 0xD2, 0x91, 0x63, 0x93, 0xCB, 0xAC, 0xE7, 0xBF, 0xEE,
    0xF2, 0xD1, 0x0E, 0xFD, 0x2C, 0x79, 0x10, 0xFB, 0x34, 0x96, 0xC6, 0x2A, 0x37, 0x05, 0x0F, 0x00,
    0xBB, 0x9C, 0xB5, 0xEA, 0x7A, 0xF0, 0x6F, 0x31, 0x0E, 0x7F, 0xD2, 0xBB, 0x31, 0xB5, 0xE1, 0xF6,
    0x52, 0xAE, 0x45, 0x51, 0x27, 0xDE, 0x57, 0xD1, 0xFB, 0xED, 0x37, 0xD5, 0x5D, 0x00, 0x27, 0x5D,
    0xAB, 0xCD, 0xBB, 0x29, 0x19, 0x01, 0xCB, 0xF9, 0x02, 0x32, 0xAC, 0x74, 0xB4, 0x4D, 0xEB, 0xA0,
    0xFF, 0x3F, 0x03, 0x4E, 0x25, 0x43, 0x34, 0xEB, 0x55, 0xDE, 0x34, 0xCC, 0x40, 0x2B, 0x47, 0xB5,
    0xA4, 0xCB, 0x16, 0x1B, 0x0D, 0xDC, 0x9A, 0x74, 0xF0, 0x4F, 0x15, 0x14, 0x5E, 0xC1, 0xEE, 0x19,
    0x07, 0x02, 0xA0, 0x41, 0xB3, 0x2A, 0xB6, 0x77, 0xB0, 0x25, 0x57, 0x05, 0x3F, 0x9D, 0xA0, 0xC1,
    0xF6, 0x45, 0x07, 0x05, 0xF7, 0x26, 0xC0, 0x4B, 0xB1, 0x4A, 0xD1, 0xC3, 0x50, 0x57, 0xCD, 0xF4,
    0xCB, 0xB4, 0x94, 0x20, 0x26, 0x25, 0x0F, 0x06, 0xC2, 0xE0, 0x72, 0xF4, 0xD9, 0xBD, 0x2A, 0x55,
    0xF4, 0x1F, 0x65, 0x5F, 0x27, 0x64, 0xBC, 0x43, 0x62, 0x32, 0x93, 0xF6, 0x13, 0x5A, 0xE6, 0x2C,
    0x25, 0x67, 0x03, 0x12, 0x7F, 0xE7, 0x20, 0xF3, 0x66, 0x04, 0x54, 0xED, 0xF7, 0x39, 0x4E, 0x0C,
    0xE2, 0xF0, 0x1A, 0xAF, 0xB0, 0xB5, 0xDA, 0x42, 0x7A, 0xE1, 0x20, 0x1A, 0xDF, 0xCA, 0x2D, 0x6C,
    0xE0, 0xCB, 0x12, 0x5B, 0xB2, 0x02, 0xFC, 0x07, 0x1B, 0xA2, 0x11, 0x5F, 0xCE, 0xC2, 0xE2, 0xB2,
    0xB2, 0xAE, 0xFC, 0x22, 0xE1, 0x02, 0xE6, 0xDF, 0xBC, 0x30, 0x32, 0x2C, 0x1E, 0xDF, 0xCB, 0xFB,
    0xE5, 0x16, 0xB1, 0xB6, 0x13, 0xD5, 0x3C, 0x29, 0x00, 0x0B, 0xE2, 0xEB, 0x5C, 0x7A, 0xFB, 0x74,
    0xE7, 0x33, 0xC4, 0x4C, 0x26, 0x21, 0x22, 0xDB, 0xD3, 0x44, 0xCE, 0xDE, 0x33, 0xFD, 0x72, 0x13,
    0x2D, 0x0A, 0xBF, 0xA0, 0x32, 0x7C, 0x51, 0xAF, 0xAA, 0xD6, 0x90, 0x19, 0xB5, 0x59, 0x3F, 0xF1,
    0x2F, 0xF4, 0x40, 0x33, 0x0C, 0x37, 0x11, 0x0E, 0x12, 0xBC, 0x14, 0x33, 0x42, 0x10, 0xE3, 0x04,
    0xAD, 0xFD, 0x06, 0xA6, 0x4C, 0x6A, 0xB6, 0xE9, 0x04, 0x23, 0x55, 0x35, 0x5D, 0xFE, 0x2F, 0x41,
    0x27, 0x5A, 0x25, 0x1A, 0xDA, 0x0C, 0xA1, 0x16, 0xEF, 0xA7, 0xB2, 0x0B, 0x06, 0xAA, 0xA6, 0xA4,
    0x0B, 0xE1, 0x6E, 0x5B, 0x22, 0x15, 0x66, 0x26, 0x66, 0x39, 0x4B, 0x05, 0xB1, 0xC3, 0xE5, 0x6C,
    0xBF, 0x4B, 0xDA, 0xDC, 0xB5, 0x3D, 0xC9, 0x35, 0x6F, 0x9B, 0xB0, 0x23, 0x31, 0xCE, 0xFC, 0xD6,
    0xFB, 0x55, 0x96, 0xCE, 0xA5, 0xE5, 0x2E, 0xB1, 0x95, 0xB2, 0x46, 0xF0, 0x4F, 0x35, 0x34, 0x31,
    0x3B, 0xA0, 0xCA, 0x02, 0x2C, 0x14, 0xFC, 0xFB, 0x31, 0xCA, 0x92, 0x9B, 0x39, 0x0D, 0xEE, 0xBE,
    0xA1, 0xBD, 0x4D, 0x24, 0x22, 0x6A, 0xDA, 0x31, 0xFF, 0xAB, 0xD3, 0x2B, 0x46, 0x14, 0xA6, 0x46,
    0xB6, 0xA4, 0x3C, 0x5D, 0xBB, 0xD3, 0x5B, 0xEF, 0x19, 0xCA, 0x2E, 0xD6, 0xA6, 0xA1, 0xAF, 0x61,
    0x91, 0x35, 0xF9, 0xCB, 0xEA, 0x0D, 0x0E, 0x6C, 0x05, 0x1A, 0xE4, 0x14, 0x5E, 0xEE, 0xBF, 0xD2,
    0xA3, 0xB4, 0xEF, 0xCE, 0xCE, 0x2E, 0x1A, 0x1C, 0xE6, 0xCF, 0xBE, 0x6E, 0x19, 0xA1, 0xA5, 0x56,
    0xE0, 0xA6, 0x11, 0x54, 0xC5, 0x5D, 0x5D, 0xEF, 0x5B, 0x9B, 0x4F, 0x36, 0xAE, 0xC4, 0x56, 0x16,
    0xF9, 0xDC, 0x19, 0xD6, 0xAD, 0x44, 0xFF, 0x0E, 0x9A, 0x39, 0xE5, 0x42, 0xB3, 0xC1, 0xA9, 0xDD,
    0xEA, 0x20, 0x60, 0xEE, 0xA3, 0x4B, 0x40, 0x59, 0x24, 0x6D, 0x9C, 0xF3, 0x5F, 0xEF, 0x41, 0xDF,
    0x46, 0xEF, 0xB1, 0xD9, 0xAE, 0xC1, 0xD4, 0x3E, 0x0E, 0xDA, 0xBD, 0xA9, 0x2E, 0x6F, 0xE5, 0x2B,
    0x31, 0x00, 0x22, 0x14, 0x25, 0xE9, 0x00, 0xAA, 0xE5, 0x5A, 0x13, 0xAD, 0x0B, 0xD6, 0x52, 0x94,
    0xA3, 0x0A, 0xB1, 0xEA, 0x6D, 0xF3, 0x3E, 0x01, 0x91, 0x00, 0xB9, 0xE9, 0xA9, 0x04, 0xE0, 0xD6,
    0x33, 0xCD, 0x49, 0xE6, 0xFD, 0x5A, 0xE0, 0x51, 0x32, 0x6A, 0xA3, 0xFC, 0xD4, 0x6D, 0xF2, 0xB5,
    0xA4, 0x13, 0x5F, 0x1B, 0xDB, 0x96, 0x9B, 0xFD, 0xB2, 0x4D, 0xD3, 0xA2, 0x10, 0xD3, 0x42, 0xA9,
    0x60, 0xA9, 0x50, 0xAC, 0x05, 0x0E, 0x63, 0x4C, 0x41, 0xBC, 0x6E, 0x19, 0x61, 0xC5, 0xEE, 0x95,
    0x0D, 0xE3, 0x09, 0xAB, 0xCE, 0xAC, 0x1A, 0xB0, 0x51, 0xA0, 0xAA, 0xC1, 0xDD, 0xAC, 0xA3, 0xB5,
    0xF1, 0x99, 0x2F, 0x26, 0x3F, 0xE9, 0x0C, 0x59, 0x09, 0x6A, 0x45, 0xC6, 0xAF, 0xE9, 0x0B, 0xC2,
    0x3D, 0xAE, 0x1B, 0x0A, 0xC9, 0x45, 0x35, 0xB3, 0xB1, 0xDF, 0x94, 0x21, 0x01, 0xBA, 0xFC, 0xDD,
    0x53, 0x54, 0xA3, 0xB3, 0xC5, 0xDA, 0xBA, 0x3E, 0xB2, 0xF4, 0xE5, 0x51, 0x15, 0xA6, 0x5C, 0x32,
    0xDC, 0x3F, 0x04, 0xD4, 0xD9, 0xEF, 0xC0, 0x3A, 0x92, 0xF4, 0xA3, 0x2C, 0x4F, 0xFF, 0xD1, 0xF1,
    0xD1, 0x53, 0x52, 0x5B, 0x21, 0xAE, 0x2F, 0xE3, 0xC2, 0x10, 0xE6, 0xE4, 0x55, 0xAA, 0x36, 0x22,
    0x02, 0xC4, 0x59, 0x4C, 0x49, 0xFC, 0x4A, 0xA3, 0x4D, 0xB1, 0xD1, 0xB3, 0xE6, 0x32, 0xB0, 0xEF,
    0xDB, 0x42, 0xE2, 0xE1, 0x3C, 0x16, 0xC9, 0x63, 0xED, 0xDF, 0x41, 0x95, 0x6D, 0x1A, 0x91, 0x51,
    0x3D, 0xAC, 0x0A, 0x1D, 0xA3, 0xEF, 0x10, 0x5E, 0xD5, 0x6E, 0x99, 0xE3, 0x93, 0xA4, 0xB5, 0xA0,
    0xCD, 0x3C, 0xD1, 0x4A, 0xD1, 0x66, 0x1B, 0x3A, 0xAB, 0x6B, 0xDF, 0x92, 0x6E, 0x3B, 0x0D, 0x6C,
    0x6F, 0xCF, 0x32, 0x22, 0x1B, 0xC4, 0x09, 0x24, 0x3C, 0x60, 0xB9, 0xEF, 0x20, 0x22, 0x2C, 0x00,
    0x16, 0x03, 0xFC, 0xDA, 0xFD, 0xE5, 0x22, 0xCB, 0x9E, 0xFC, 0xB0, 0x96, 0x2C, 0xEB, 0x41, 0xD1,
    0x1E, 0x5C, 0xC0, 0x2B, 0x16, 0x36, 0x9C, 0xF5, 0xAF, 0x21, 0xF9, 0x4B, 0x3F, 0x20, 0x0F, 0xAD,
    0xDF, 0xFF, 0x0E, 0xFE, 0x42, 0xC3, 0x25, 0xC3, 0xA4, 0xE1, 0x0D, 0xEE, 0xB1, 0xE1, 0xD3, 0xA2,
    0x3A, 0xD2, 0xE2, 0x53, 0x5D, 0x90, 0xAA, 0xAA, 0x2A, 0x94, 0x35, 0x9F, 0x93, 0xEE, 0x41, 0x09,
    0xB6, 0x03, 0xC9, 0x2E, 0x01, 0x5D, 0x42, 0x59, 0xE1, 0xC3, 0xCE, 0xF9, 0xD0, 0xDE, 0x09, 0xD6,
    0x23, 0x3B, 0x30, 0xAA, 0x0F, 0x0C, 0x3D, 0x3E, 0xF1, 0xED, 0xE4, 0xB2, 0xC9, 0x3D, 0xCA, 0x53,
    0x6B, 0x0C, 0xDD, 0x53, 0x04, 0x35, 0x4D, 0xDA, 0x20, 0xB4, 0xD6, 0x11, 0x2F, 0xFC, 0xD2, 0x34,
    0x6E, 0x4B, 0xF4, 0xAD, 0x2E, 0x16, 0xC1, 0xB9, 0x91, 0xE4, 0x1C, 0x2C, 0xC3, 0xAD, 0xB6, 0x59,
    0x53, 0x19, 0xAA, 0xFB, 0x2A, 0x4E, 0xAE, 0xC6, 0xBE, 0x05, 0xB4, 0x0A, 0xCA, 0xDC, 0xF2, 0x1A,
    0x24, 0x61, 0x9D, 0xFC, 0x23, 0x9A, 0xCB, 0x63, 0xB1, 0x05, 0xB3, 0xCD, 0x16, 0x3F, 0x3D, 0x20,
    0xD4, 0xC6, 0xD0, 0x60, 0xAA, 0x90, 0xE0, 0x53, 0xCB, 0x59, 0xCB, 0xAB, 0x91, 0x99, 0x29, 0xBC,
    0x5A, 0xF5, 0xAB, 0xDC, 0xC9, 0xCF, 0x9B, 0xDB, 0xCA, 0x4E, 0xF5, 0xAF, 0x3D, 0xA1, 0xE5, 0xDD,
    0xCC, 0x11, 0xD0, 0xF1, 0x54, 0xFC, 0xAB, 0xEC, 0x2F, 0xB5, 0xD5, 0xDD, 0x13, 0x12, 0xFF, 0xCA,
    0xE2, 0xDD, 0xE2, 0x4B, 0xF1, 0xFF, 0x1A, 0xF9, 0xCD, 0xA6, 0xEA, 0xE1, 0x94, 0x64, 0xDE, 0x20,
    0x99, 0xEF, 0x9B, 0xB1, 0x21, 0x2F, 0x0A, 0xCF, 0x3B, 0x0F, 0x3B, 0x6C, 0x05, 0x41, 0xFD, 0xC4,
    0xFA, 0x62, 0x5D, 0x14, 0x11, 0x5C, 0x55, 0xD2, 0xAB, 0x11, 0x05, 0xAF, 0xAE, 0xFB, 0xEF, 0x2A,
    0xBD, 0x6F, 0x4E, 0xA6, 0x01, 0xE5, 0x59, 0x1D, 0xCE, 0xA0, 0xF9, 0x96, 0xB0, 0x45, 0xD4, 0xB0,
    0x9E, 0x04, 0xCF, 0x95, 0x23, 0xBF, 0x4C, 0x02, 0x15, 0xAD, 0x3F, 0xE0, 0xB3, 0xD5, 0x54, 0xF5,
    0x44, 0xFA, 0x4C, 0xD2, 0xA3, 0x50, 0xCC, 0xE3, 0x62, 0x36, 0x1D, 0x21, 0xBB, 0x35, 0x1C, 0xCF,
    0x44, 0x33, 0x13, 0xFF, 0x15, 0xED, 0x21, 0x0E, 0x0E, 0xD4, 0xAF, 0x0E, 0x6D, 0xE6, 0x6B, 0x3D,
    0xC1, 0xCB, 0x05, 0x04, 0x09, 0x32, 0x0B, 0xCB, 0x4C, 0x69, 0xE4, 0x6E, 0xEC, 0xC2, 0x26, 0xB2,
    0xDF, 0xE1, 0x6B, 0x4A, 0x63, 0xE2, 0x92, 0xCE, 0xBB, 0x4D, 0x73, 0xFD, 0x3E, 0x59, 0x5F, 0xF0,
    0x40, 0xC4, 0x24, 0x25, 0x12, 0x06, 0x30, 0x51, 0x0E, 0x4E, 0x53, 0x35, 0x9C, 0xA1, 0xCC, 0x9D,
    0x0D, 0x55, 0x53, 0x63, 0x92, 0xFC, 0x36, 0xD5, 0x2C, 0xB3, 0x2C, 0x91, 0x31, 0xDB, 0xED, 0xD2,
    0x2D, 0x44, 0xFD, 0xFD, 0xD5, 0xDD, 0xFE, 0xCC, 0x10, 0xA9, 0x93, 0x17, 0x36, 0xDB, 0xD4, 0x94,
    0x23, 0x04, 0x4E, 0xF1, 0xF4, 0xE0, 0xE4, 0xC1, 0xC5, 0x06, 0x7A, 0xF1, 0xDE, 0x15, 0x52, 0x35,
    0xA1, 0xAE, 0xE1, 0x4B, 0x07, 0xFA, 0x43, 0x02, 0xEA, 0xC0, 0xE9, 0x3B, 0x30, 0x63, 0xCE, 0xAA,
    0xBD, 0x2F, 0x5E, 0x05, 0x45, 0x17, 0xDE, 0xDA, 0x1B, 0xD0, 0xD1, 0x12, 0x96, 0xEB, 0xC3, 0x41,
    0x7A, 0x6E, 0x01, 0x50, 0x05, 0x4C, 0xC3, 0xA2, 0x36, 0x24, 0xEF, 0xC9, 0x24, 0x1F, 0xEF, 0xE7,
    0xAC, 0xFC, 0x6F, 0xBA, 0x4D, 0xEE, 0xBB, 0xDC, 0xBD, 0x03, 0xDF, 0x0B, 0xEC, 0xB4, 0x2C, 0x95,
    0x1E, 0xB3, 0x14, 0x3D, 0x2D, 0x13, 0xD3, 0xF1, 0x2B, 0xD2, 0x13, 0x30, 0xB2, 0x69, 0x45, 0x41,
    0x5A, 0x1C, 0x2F, 0x24, 0x1F, 0xA7, 0x54, 0xE7, 0x9E, 0xE5, 0x3D, 0x4A, 0x7D, 0xDA, 0x4E, 0x11,
    0xC4, 0xFE, 0xED, 0xFB, 0x12, 0x01, 0x23, 0x0C, 0x11, 0xA1, 0x96, 0x2B, 0xFD, 0x02, 0xD2, 0xCB,
    0x1A, 0xB3, 0x42, 0xB1, 0x91, 0xF4, 0xC0, 0x40, 0xFE, 0x67, 0xFC, 0xE6, 0xEF, 0x31, 0xBE, 0xDF,
    0xF2, 0x40, 0xAF, 0xB4, 0x12, 0x54, 0x9C, 0xA4, 0xBE, 0x4A, 0x2B, 0x60, 0x2B, 0xEA, 0xD9, 0xCD,
    0xF4, 0x04, 0xEA, 0xE0, 0xD5, 0x74, 0x12, 0x05, 0x74, 0x7F, 0x3A, 0x72, 0xFF, 0x09, 0x6F, 0x40,
    0x6C, 0x45, 0x41, 0xC5, 0xF2, 0x19, 0x02, 0xF2, 0x60, 0x1A, 0x4A, 0x4E, 0x64, 0xA0, 0x49, 0xB3,
    0x04, 0xE6, 0x40, 0xE2, 0x43, 0xB4, 0x33, 0x31, 0x14, 0xC6, 0xD3, 0xEE, 0x09, 0xF7, 0xC6, 0xEB,
    0x12, 0x4D, 0x43, 0x47, 0x33, 0x64, 0x0E, 0x14, 0x4B, 0xE1, 0xC7, 0x0F, 0x21, 0x35, 0x3B, 0x04,
    0xA0, 0xF1, 0x95, 0xC3, 0xD1, 0x46, 0xD5, 0x36, 0xAD, 0xFB, 0xBE, 0xB2, 0x1C, 0xEC, 0x21, 0x3D,
    0x13, 0x5E, 0x4D, 0x3E, 0x21, 0x10, 0x2B, 0xD2, 0x92, 0x5F, 0x4B, 0x92, 0x43, 0xD4, 0x12, 0x0C,
    0xDF, 0xA3, 0xDE, 0x40, 0x4D, 0xCC, 0x1D, 0x43, 0x06, 0x06, 0x22, 0xDD, 0xA3, 0xDD, 0xA5, 0xEB,
    0x14, 0x15, 0xDE, 0xE3, 0xB5, 0x71, 0x12, 0x53, 0x34, 0x63, 0xCF, 0xDF, 0xE1, 0x4E, 0x67, 0xD0,
    0xB3, 0x6D, 0x2E, 0xA0, 0x1B, 0x66, 0x25, 0xC4, 0xE3, 0x66, 0x26, 0xB9, 0x02, 0x26, 0xC6, 0x70,
    0xC0, 0x09, 0xD7, 0xCC, 0xB7, 0x21, 0xA6, 0x56, 0x1A, 0xCC, 0x30, 0x09, 0xD2, 0xD6, 0x53, 0xF1,
    0x3E, 0x4C, 0x20, 0x1F, 0xAC, 0x59, 0xAB, 0xEE, 0xC0, 0x26, 0x40, 0x4E, 0x50, 0xD6, 0x0E, 0xC4,
    0xC2, 0x9D, 0xEB, 0xA5, 0x73, 0xD5, 0xEC, 0x91, 0x31, 0xF1, 0x59, 0xEA, 0x65, 0xD6, 0x3B, 0x4E,
    0x4E, 0x56, 0x7C, 0x6C, 0x12, 0x2A, 0x44, 0xBB, 0xD1, 0x6C, 0xFD, 0xC4, 0x65, 0x31, 0x39, 0xDD,
    0x1B, 0xE1, 0x2F, 0xD1, 0x99, 0x10, 0x40, 0x4C, 0xEE, 0xA9, 0x3D, 0x55, 0x4D, 0xB0, 0xF4, 0xE5,
    0x65, 0xFD, 0xFD, 0x1C, 0x3D, 0xFD, 0x3E, 0xF7, 0xFA, 0x5B, 0x1F, 0x2E, 0x55, 0x19, 0x44, 0xC1,
    0xA7, 0xE6, 0xAA, 0x56, 0x62, 0xEA, 0xF3, 0xB3, 0x33, 0x40, 0x7E, 0x66, 0x6B, 0x62, 0x05, 0xC5,
    0xB6, 0xAD, 0x9E, 0x36, 0x35, 0x5E, 0xD4, 0x33, 0x52, 0x4F, 0x19, 0xC6, 0x66, 0x2E, 0x1F, 0xC3,
    0x74, 0xFA, 0xFE, 0xE1, 0xD4, 0xE1, 0x1D, 0x1C, 0x6B, 0xEF, 0xD2, 0xFE, 0x4B, 0xFD, 0xDB, 0xAB,
    0xF4, 0x9E, 0xA5, 0xEA, 0x10, 0xE1, 0x53, 0xE6, 0xEB, 0x24, 0xA2, 0x0A, 0xBC, 0xD3, 0x5D, 0x3D,
    0x66, 0x13, 0x0D, 0x9D, 0x1F, 0xAB, 0xEA, 0x1B, 0xCE, 0xEB, 0xA4, 0x5C, 0xB9, 0x20, 0x03, 0xAE,
    0x5F, 0xFB, 0xB3, 0xE1, 0x74, 0x1F, 0x50, 0xBE, 0xAA, 0xD5, 0x7F, 0x56, 0x27, 0x9A, 0x91, 0xBD,
    0x0E, 0x3B, 0xD5, 0xDD, 0x35, 0x32, 0x2E, 0x9D, 0xAC, 0x11, 0x91, 0xF4, 0xA5, 0x37, 0x69, 0xDB,
    0xAD, 0xCC, 0x04, 0xAE, 0xA3, 0x4E, 0xEF, 0x16, 0x25, 0x1B, 0x51, 0x03, 0xBF, 0x0F, 0x3F, 0x09,
    0xB2, 0xA6, 0xFA, 0x3D, 0x60, 0x2E, 0xDD, 0xCF, 0x16, 0xCA, 0x20, 0xCD, 0x03, 0x25, 0x51, 0x2B,
    0xA5, 0x19, 0xD0, 0xA5, 0x64, 0x17, 0x4E, 0x35, 0xC3, 0x31, 0xC0, 0x3C, 0x16, 0x9E, 0xC9, 0x53,
    0x3F, 0x53, 0xC1, 0x41, 0x30, 0xFF, 0x9F, 0x2F, 0xAE, 0xA5, 0xEB, 0x3F, 0xD0, 0xC6, 0xF4, 0x5D,
    0x4E, 0x2D, 0xBD, 0xCE, 0x32, 0x3C, 0x7B, 0x17, 0xD5, 0xA3, 0xB4, 0xF3, 0xD9, 0x59, 0x0E, 0x41,
    0x67, 0xF4, 0x47, 0xF4, 0x6C, 0x6D, 0xC5, 0x3F, 0x75, 0xE0, 0xC4, 0x6E, 0x9F, 0x03, 0xBE, 0x65,
    0xF9, 0xC7, 0xAD, 0x6D, 0x2A, 0x04, 0x20, 0x62, 0x1A, 0x32, 0xD6, 0x4C, 0x4A, 0x42, 0xF9, 0xDF,
    0xBF, 0xD3, 0x4E, 0x94, 0x66, 0x65, 0x5B, 0x0B, 0x6B, 0x5C, 0x95, 0x2D, 0x3F, 0x40, 0x1A, 0x2C,
    0xA6, 0x1E, 0x32, 0x4E, 0x4C, 0x2B, 0xB6, 0x36, 0x95, 0x4A, 0xDD, 0x0F, 0xEF, 0x1D, 0x64, 0x55,
    0xE0, 0x15, 0x40, 0x62, 0x3D, 0xEB, 0xC4, 0xC2, 0xA0, 0x41, 0xBB, 0xC9, 0x2B, 0x12, 0xD0, 0xD1,
    0xFA, 0xD1, 0xDB, 0xD4, 0xE9, 0x44, 0x5D, 0xED, 0x01, 0x03, 0x0E, 0x95, 0x1D, 0x67, 0x92, 0xDE,
    0x21, 0x9B, 0x35, 0x20, 0xC0, 0x1D, 0x91, 0xB4, 0xD1, 0x21, 0xDD, 0x6A, 0x37, 0xA1, 0x34, 0xBC,
    0x21, 0xEF, 0xF3, 0xEA, 0xEF, 0x1F, 0xFC, 0xE9, 0x7A, 0xF9, 0x14, 0xB3, 0x44, 0x6F, 0x13, 0xB5,
    0x00, 0xF4, 0x41, 0xDB, 0x69, 0x64, 0x03, 0x69, 0x0E, 0x2E, 0xF7, 0xA4, 0x01, 0x49, 0xEE, 0xC4,
    0x90, 0x7C, 0x2D, 0xD5, 0xFE, 0x6D, 0x25, 0xD6, 0x1D, 0x1E, 0x3A, 0x1F, 0xC6, 0x21, 0xDC, 0x15,
    0xD1, 0x14, 0x07, 0x41, 0xF2, 0xB0, 0xD5, 0xEF, 0x3A, 0x4E, 0xB4, 0x24, 0x61, 0x1F, 0x1C, 0xBD,
    0x23, 0x5B, 0xFB, 0xF1, 0xCD, 0xD3, 0x4C, 0x2A, 0xDF, 0x7A, 0x74, 0xBA, 0xC9, 0x06, 0xBF, 0x63,
    0xF6, 0xDF, 0x0F, 0xBB, 0x97, 0xFC, 0x13, 0xC7, 0x24, 0x9E, 0x30, 0xDA, 0xCE, 0xF9, 0xB5, 0x31,
    0x2C, 0x39, 0x25, 0x5F, 0x5D, 0xBC, 0x0B, 0xA3, 0xBE, 0x2F, 0xA6, 0x10, 0xB7, 0x51, 0xC3, 0x62,
    0xCB, 0x3D, 0x1C, 0x74, 0xC9, 0x24, 0xF0, 0xAB, 0x60, 0x2E, 0x4C, 0x2B, 0xE9, 0xFC, 0x1F, 0x10,
    0x3D, 0xCE, 0x52, 0xDF, 0x54, 0x32, 0xEB, 0x5D, 0x43, 0xFD, 0xE4, 0x54, 0x6B, 0x4E, 0xEB, 0x15,
    0xD7, 0xBC, 0x3D, 0xDD, 0x9E, 0x3B, 0xC1, 0x6C, 0x60, 0xBE, 0xD9, 0xD3, 0x3B, 0x29, 0x46, 0x9C,
    0xF9, 0xCA, 0x23, 0x41, 0x66, 0xF0, 0x54, 0x57, 0x23, 0xA6, 0xA3, 0xC4, 0x3B, 0xDA, 0x46, 0xAC,
    0x21, 0x3A, 0x09, 0xE1, 0xE9, 0x4A, 0x0A, 0x4B, 0xF2, 0x5B, 0xDB, 0xBB, 0xDA, 0x34, 0x29, 0x00,
    0x14, 0x17, 0xBF, 0xFF, 0x30, 0xC1, 0x1E, 0xCA, 0xC0, 0x6A, 0x7E, 0xF7, 0xFD, 0x90, 0x42, 0xAE,
    0xC4, 0xF0, 0x20, 0x0C, 0xDB, 0xF0, 0x06, 0xCE, 0x30, 0x31, 0x32, 0xDA, 0xE3, 0x4A, 0xFE, 0xA1,
    0xE0, 0x0E, 0xBE, 0xFD, 0xA2, 0x31, 0x54, 0x9E, 0x9A, 0x32, 0x0C, 0xC6, 0x2A, 0x02, 0xB3, 0x01,
    0x63, 0x35, 0x63, 0xEE, 0x34, 0x0B, 0x11, 0x91, 0x56, 0x10, 0x91, 0xFD, 0x23, 0x63, 0xC3, 0x24,
    0x5D, 0x54, 0xA4, 0xF2, 0xF6, 0x32, 0x2C, 0x4E, 0xFE, 0x66, 0x6B, 0x20, 0x26, 0x1C, 0x23, 0x32,
    0xEF, 0x1E, 0xCF, 0x52, 0x0F, 0x05, 0x40, 0x5E, 0x26, 0xBE, 0xAD, 0xF4, 0x6B, 0x61, 0x4F, 0xC5,
    0x2A, 0x0F, 0x26, 0x92, 0x49, 0xF6, 0xAF, 0x52, 0x54, 0xA4, 0xF9, 0xCA, 0xCC, 0x92, 0xDC, 0x16,
    0x27, 0x41, 0x72, 0xC6, 0xD6, 0xD3, 0xF5, 0x36, 0x0C, 0xFF, 0xC4, 0xB0, 0x0B, 0xEF, 0xEE, 0x7E,
    0x37, 0xF5, 0xBB, 0x7A, 0x29, 0x9C, 0xF9, 0x52, 0x34, 0xF5, 0x35, 0x9F, 0xAF, 0x10, 0x70, 0x45,
    0x96, 0x0C, 0x22, 0xB9, 0x2C, 0xFE, 0xFC, 0xA3, 0xFA, 0x4A, 0x19, 0xF0, 0x1F, 0xC9, 0x46, 0x43,
    0x34, 0x00, 0x95, 0x3E, 0x3F, 0x00, 0xEC, 0x9F, 0x2C, 0x62, 0xC0, 0x6C, 0x3B, 0x09, 0x6A, 0x21,
    0x93, 0x4E, 0xAD, 0x11, 0xAA, 0x32, 0x4E, 0x96, 0x2D, 0xF4, 0x00, 0xB9, 0x4B, 0x19, 0x41, 0xBE,
    0xE6, 0x2D, 0x2F, 0xCE, 0xE3, 0x40, 0x93, 0x33, 0xE4, 0x47, 0xCB, 0x23, 0x11, 0xBF, 0xE7, 0x34,
    0xFC, 0xDE, 0xFA, 0xCA, 0x46, 0xD5, 0x07, 0x6A, 0x17, 0x53, 0x6F, 0xE0, 0x30, 0x9C, 0xEF, 0xFD,
    0xAB, 0xF1, 0x30, 0xE3, 0x5C, 0x63, 0xF6, 0x47, 0xD4, 0x05, 0x35, 0xA4, 0x14, 0x4E, 0xE0, 0xE2,
    0xC7, 0x4D, 0xF1, 0xE2, 0x56, 0x3D, 0x36, 0xDE, 0x1F, 0x00, 0x96, 0x51, 0xA2, 0x1B, 0xBF, 0x53,
    0x42, 0xE9, 0xFF, 0x64, 0x20, 0xC5, 0xCC, 0xB2, 0x15, 0x64, 0x0D, 0x15, 0xB9, 0x01, 0x45, 0x57,
    0xAB, 0xD9, 0x0D, 0xE1, 0x7D, 0x02, 0xED, 0x0B, 0x02, 0xC0, 0x25, 0x35, 0xDF, 0x9B, 0xDD, 0xE3,
    0x1D, 0x25, 0xD0, 0x5F, 0x1D, 0x0C, 0x4F, 0x4F, 0x6B, 0xE5, 0xAD, 0x03, 0x45, 0x53, 0xC5, 0x25,
    0xF5, 0xF4, 0x11, 0x02, 0x13, 0xBB, 0x76, 0xDD, 0x4C, 0xE4, 0x12, 0xE9, 0x6C, 0x3F, 0xBE, 0x5C,
    0x3F, 0xB1, 0xBD, 0x15, 0xF2, 0x2E, 0x10, 0xE4, 0xF2, 0xDD, 0x2E, 0x32, 0x01, 0x41, 0xE4, 0x2C,
    0x7D, 0xB5, 0xBA, 0xE5, 0x4A, 0xC6, 0x12, 0x41, 0xC2, 0x32, 0x5A, 0xC4, 0x52, 0xF0, 0xD2, 0x1B,
    0x1F, 0xB6, 0xE6, 0xB1, 0xDE, 0x12, 0xD5, 0xE3, 0xE2, 0x2C, 0xBC, 0x91, 0xE6, 0xD1, 0x59, 0xB7,
    0x19, 0xED, 0x0F, 0x15, 0x44, 0xD2, 0xBF, 0x39, 0x52, 0x0E, 0xDA, 0x54, 0x3E, 0x30, 0xEE, 0xF5,
    0x0A, 0x42, 0x62, 0x9F, 0x12, 0x1F, 0xBF, 0x09, 0xCC, 0xED, 0xD3, 0xE4, 0x04, 0xF2, 0x42, 0xF3,
    0x9C, 0x22, 0x15, 0xF3, 0x35, 0x5E, 0xBB, 0xBE, 0x15, 0x90, 0x33, 0x1C, 0xF2, 0xBD, 0x76, 0xBD,
    0xDC, 0x64, 0xF4, 0x26, 0x0F, 0x4F, 0x50, 0xDD, 0xEC, 0xA2, 0x24, 0x4D, 0xEB, 0xD1, 0xA2, 0xC6,
    0x21, 0x40, 0x60, 0xA0, 0x9E, 0xFE, 0x20, 0xBC, 0xCE, 0x0D, 0xDA, 0x1B, 0xC5, 0xDD, 0xFD, 0x01,
    0xA5, 0x1D, 0x2E, 0x56, 0x47, 0xC5, 0x09, 0x2F, 0x61, 0x5B, 0xBA, 0x6A, 0x21, 0x35, 0xF3, 0xD1,
    0x0C, 0x0D, 0xD0, 0xBE, 0x6A, 0xE6, 0x45, 0x64, 0x40, 0xD4, 0xC4, 0x5B, 0xD9, 0xC4, 0x1B, 0x42,
    0x45, 0x00, 0x02, 0x26, 0x13, 0x9B, 0x1A, 0x25, 0x9D, 0xE9, 0x0C, 0x5D, 0xEA, 0x5F, 0xDA, 0xC5,
    0x73, 0xA6, 0xFE, 0xC2, 0xE0, 0x42, 0xCA, 0xCE, 0x06, 0xB5, 0x53, 0xDF, 0x5A, 0xEB, 0x2B, 0xFA,
    0x09, 0xD7, 0x3C, 0x3B, 0x2A, 0x9E, 0xE2, 0x26, 0xFA, 0x52, 0x5E, 0xD2, 0x73, 0xEF, 0x1F, 0x3F,
    0xB6, 0x49, 0x56, 0x9D, 0xCC, 0x75, 0x11, 0xEF, 0x31, 0x1D, 0x13, 0x17, 0x53, 0x3E, 0x35, 0x41,
    0x94, 0xA4, 0x17, 0x21, 0x33, 0xA4, 0xF5, 0x51, 0x3F, 0x46, 0xF0, 0x0F, 0x02, 0x52, 0x22, 0xEE,
    0x5C, 0x9F, 0x17, 0x3F, 0x4C, 0x22, 0x6A, 0xC4, 0xEC, 0x1C, 0xF5, 0x1D, 0xDD, 0x24, 0xFD, 0x1E,
    0x4F, 0x61, 0x0C, 0xE3, 0x4C, 0xDF, 0x24, 0x1E, 0x34, 0x1C, 0xED, 0x5B, 0xCE, 0xBF, 0x5C, 0x21,
    0x37, 0xDD, 0xA2, 0x50, 0x3A, 0x41, 0xFD, 0x32, 0x9D, 0x4B, 0xCD, 0xF5, 0x45, 0x0B, 0xC9, 0xEA,
    0x19, 0xB2, 0x20, 0xDD, 0x4C, 0xC6, 0xC2, 0x09, 0x25, 0x44, 0x0D, 0x41, 0x7F, 0xFC, 0x07, 0x00,
    0x6E, 0xCB, 0x16, 0x42, 0x12, 0x34, 0xD6, 0x24, 0x3A, 0x9D, 0x31, 0xE3, 0x3D, 0xB7, 0x9F, 0x66,
    0x45, 0x6C, 0xBD, 0xD5, 0xB1, 0xB3, 0x4C, 0xD6, 0xF9, 0xFB, 0x76, 0x1F, 0x1B, 0xAE, 0x0F, 0x3C,
    0x40, 0x9D, 0x33, 0xCF, 0xDC, 0xD4, 0xFC, 0x65, 0xD5, 0x2F, 0xA2, 0x60, 0x55, 0x2A, 0x90, 0xBD,
    0x6F, 0x20, 0xBF, 0x94, 0x4A, 0xFC, 0x66, 0xEA, 0x4D, 0xCB, 0x4B, 0xB2, 0xE0, 0xA3, 0xE6, 0x51,
    0xBD, 0xE5, 0xB6, 0x03, 0xE5, 0x0E, 0xD1, 0x3D, 0x62, 0xBE, 0xE5, 0x46, 0x24, 0x03, 0xBD, 0xC9,
    0x05, 0x0F, 0xB2, 0xBA, 0x25, 0x01, 0x1A, 0xE1, 0x25, 0x1E, 0x63, 0xE4, 0xE6, 0xD2, 0x39, 0x5B,
    0x1E, 0x5C, 0x91, 0xA4, 0xDB, 0xED, 0x33, 0x6C, 0x26, 0xFE, 0x1F, 0x0A, 0xA3, 0x43, 0xEC, 0xA4,
    0x01, 0xE4, 0x23, 0xDF, 0xE1, 0xF5, 0xED, 0x51, 0xF9, 0x5B, 0x9B, 0x01, 0xEA, 0xDE, 0xB1, 0x74,
    0x4F, 0x90, 0xE3, 0x32, 0xF3, 0x4F, 0xB0, 0x1E, 0x62, 0xC6, 0x42, 0x0F, 0x31, 0x0D, 0xB2, 0xF9,
    0x65, 0x1B, 0x6D, 0x0D, 0x2A, 0x6F, 0x36, 0xD6, 0xBE, 0xC4, 0xB1, 0x5B, 0x95, 0xD5, 0x9A, 0xED,
    0xCD, 0xC4, 0xAC, 0xAD, 0x51, 0xFD, 0xE5, 0x3C, 0x15, 0x91, 0xED, 0xC0, 0xD2, 0xD6, 0xCB, 0x3F,
    0xD1, 0x14, 0xD0, 0xEB, 0xA4, 0x07, 0x4E, 0x3B, 0xBC, 0x10, 0xEF, 0x2B, 0xC2, 0xCD, 0x02, 0x63,
    0x55, 0xBB, 0xD4, 0xB1, 0xAE, 0xED, 0xE5, 0x35, 0x02, 0x9D, 0x0E, 0x40, 0x11, 0xA4, 0xC2, 0xBD,
    0x76, 0x9C, 0x15, 0x2B, 0x50, 0xD3, 0xBF, 0x0D, 0xD6, 0xBE, 0x36, 0xEE, 0xB4, 0x9A, 0x0C, 0x01,
    0xCC, 0xB0, 0x04, 0x03, 0x5A, 0xF0, 0xE1, 0x3F, 0x29, 0x6A, 0x9D, 0x40, 0xFF, 0xF5, 0x16, 0x15,
    0xDE, 0x51, 0xDF, 0x3C, 0x35, 0x51, 0xDA, 0xA2, 0x3A, 0xF0, 0x49, 0xC1, 0x3A, 0xCF, 0x42, 0xBA,
    0xD5, 0x63, 0xE7, 0xD0, 0x24, 0x04, 0xDD, 0xCE, 0xB4, 0x62, 0xF4, 0x5A, 0xF7, 0x3E, 0x06, 0xF5,
    0x46, 0x69, 0x2F, 0x0F, 0x35, 0xA1, 0xF9, 0x1D, 0xBC, 0x4D, 0x65, 0x92, 0xA5, 0x24, 0x36, 0xEB,
    0x45, 0xBD, 0xE9, 0xEA, 0x55, 0x99, 0x04, 0x7D, 0x66, 0xC5, 0xBC, 0x6E, 0x64, 0xA9, 0xCD, 0xEB,
    0xDB, 0xC9, 0xE7, 0x1A, 0x1E, 0x7F, 0xC0, 0x10, 0xA5, 0xF0, 0xA6, 0xC2, 0xF4, 0x09, 0x56, 0x63,
    0x01, 0x14, 0xDC, 0xE1, 0x66, 0xC3, 0x6A, 0x3C, 0xD0, 0x9F, 0x26, 0x15, 0xF4, 0x57, 0x2D, 0xA1,
    0x6A, 0x3D, 0xCD, 0x5D, 0xCF, 0xF0, 0xA9, 0xE5, 0x2F, 0x5E, 0xCE, 0x0E, 0x05, 0xE5, 0x2F, 0x50,
    0xA5, 0xEE, 0xFE, 0x41, 0x56, 0x3B, 0xFF, 0xD3, 0xEB, 0xF2, 0xFF, 0xD1, 0x4C, 0x22, 0x7C, 0x7A,
    0xE5, 0xEC, 0x22, 0xEB, 0xB3, 0x23, 0xA3, 0x6A, 0xF2, 0xE9, 0x92, 0x02, 0x34, 0xEA, 0x20, 0x0F,
    0x00, 0xDA, 0x0E, 0xCB, 0x2E, 0xCE, 0xFA, 0x0C, 0x5B, 0xFF, 0xC2, 0x03, 0x42, 0x3C, 0x1C, 0x29,
    0x1D, 0x32, 0xC5, 0x5E, 0xDF, 0xD6, 0xCB, 0xC9, 0x54, 0xCA, 0xCE, 0x61, 0x17, 0x0C, 0x5D, 0xD2,
    0x15, 0xAA, 0xB5, 0xB3, 0x22, 0xEE, 0x20, 0x14, 0x1B, 0x0C, 0x25, 0x03, 0x34, 0x2E, 0xF6, 0x11,
    0x57, 0x0C, 0xB1, 0xC2, 0x20, 0x44, 0x3C, 0x4B, 0xED, 0x9E, 0x53, 0x20, 0x69, 0xD4, 0x65, 0xFD,
    0xA0, 0x66, 0x6E, 0x47, 0xFA, 0xB2, 0xEC, 0x0A, 0x31, 0x9A, 0xE2, 0xA2, 0x25, 0xE5, 0x1B, 0x6D,
    0xA5, 0x51, 0x5F, 0x45, 0x6F, 0x09, 0xC6, 0xB5, 0x05, 0x59, 0x4F, 0xEE, 0xA0, 0xCD, 0xA6, 0x6E,
    0xE4, 0xF9, 0x3A, 0xEF, 0xBC, 0x3B, 0xC4, 0x4F, 0x15, 0xB1, 0xC4, 0xBC, 0x46, 0x9B, 0x1E, 0x25,
    0x26, 0xBA, 0x35, 0x11, 0x44, 0xCB, 0x44, 0xE1, 0x11, 0x76, 0x46, 0x91, 0xDC, 0xF9, 0xEE, 0xDA,
    0x34, 0x51, 0xE2, 0x79, 0xE5, 0x9D, 0xF1, 0x33, 0x9D, 0xBC, 0xB3, 0x6D, 0xE4, 0xA5, 0x60, 0x45,
    0xEA, 0xBD, 0xED, 0xD5, 0x39, 0x0B, 0x3D, 0xF5, 0x1D, 0xE2, 0x3E, 0xE1, 0x2F, 0x24, 0x01, 0xA1,
    0x73, 0xF4, 0xD2, 0xD9, 0xA5, 0x55, 0xD9, 0xEE, 0xED, 0xDC, 0x24, 0xBD, 0x37, 0x9F, 0x50, 0x73,
    0xEF, 0xCE, 0x92, 0xEA, 0x9F, 0x2C, 0x43, 0xA4, 0x93, 0xC1, 0xA0, 0xC4, 0x3C, 0xA1, 0x6C, 0x1E,
    0xFB, 0x0B, 0xD7, 0x2C, 0xCB, 0xAC, 0x23, 0x92, 0xBF, 0x55, 0x04, 0xCA, 0x46, 0x0A, 0xAE, 0xE6,
    0x2D, 0xF2, 0x5D, 0x3B, 0xAF, 0xF0, 0xE1, 0xC3, 0x30, 0x56, 0xFC, 0x6C, 0x02, 0x9A, 0x50, 0x0F,
    0x0E, 0xFB, 0xB4, 0x25, 0x64, 0xE3, 0xA6, 0xF3, 0xB0, 0x11, 0x75, 0xC4, 0x03, 0x4D, 0xD9, 0xC4,
    0x03, 0x06, 0xE1, 0x25, 0xBA, 0xBF, 0x2B, 0x34, 0xB0, 0x00, 0x60, 0xA4, 0x21, 0x15, 0xE9, 0x43,
    0xCF, 0xD9, 0x1F, 0xFC, 0x2C, 0xA3, 0xB5, 0xB5, 0xB6, 0xB6, 0xF1, 0x1A, 0xE0, 0xE3, 0xCA, 0xCE,
    0x3A, 0x6F, 0x6B, 0xBD, 0xEE, 0x54, 0x99, 0x63, 0xB6, 0x1C, 0xA6, 0x60, 0xF5, 0x40, 0x29, 0x49,
    0x44, 0x55, 0x53, 0x6C, 0x10, 0x4A, 0x1B, 0x52, 0x01, 0xBF, 0xAC, 0x05, 0xE7, 0xF9, 0xE0, 0xD2,
    0x1F, 0x12, 0x39, 0x93, 0x02, 0xAC, 0x54, 0xCB, 0xC5, 0xBC, 0x64, 0xF3, 0x3D, 0x2C, 0x36, 0xB9,
    0x1A, 0x9F, 0xA6, 0xDC, 0x4D, 0x67, 0xDC, 0x44, 0x34, 0xCB, 0xA9, 0x02, 0xBF, 0x31, 0xE3, 0x3E,
    0x5E, 0x42, 0xB2, 0xEC, 0x3C, 0x1B, 0xE2, 0x12, 0x64, 0xB4, 0xDB, 0x3D, 0x5F, 0x35, 0xF6, 0xCF,
    0x1E, 0x72, 0x35, 0x0E, 0xF3, 0x4C, 0xD3, 0x2F, 0xF4, 0x52, 0xA4, 0xFC, 0x94, 0x9B, 0x9C, 0x09,
    0x19, 0x7F, 0xE2, 0xBA, 0xC6, 0xAC, 0xBF, 0x44, 0x63, 0x34, 0x6E, 0xFE, 0x26, 0x1A, 0x4E, 0x29,
    0x11, 0x70, 0x1E, 0xCA, 0xB7, 0xAE, 0x2C, 0x10, 0x4D, 0xD0, 0xD4, 0x4A, 0xF0, 0xC1, 0x3A, 0x44,
    0x3E, 0x51, 0x69, 0xEC, 0xFE, 0x42, 0x67, 0x05, 0xF0, 0xCC, 0x04, 0x4A, 0x3E, 0x5B, 0xFF, 0xA4,
    0x3C, 0xDF, 0xB4, 0x7F, 0xFE, 0x07, 0xD4, 0x64, 0xA2, 0x51, 0x64, 0x4A, 0x3A, 0xA4, 0xB9, 0x0B,
    0xE5, 0x1A, 0x2D, 0x05, 0x6D, 0xA5, 0x30, 0x2A, 0xE3, 0x6B, 0xC1, 0x1D, 0x5F, 0x7C, 0xFF, 0x57,
    0xD1, 0xAA, 0x0F, 0xF4, 0x17, 0x65, 0x9C, 0xDA, 0x52, 0xA3, 0xED, 0xC4, 0x55, 0xE2, 0xAD, 0xCE,
    0x23, 0x53, 0x54, 0x61, 0xB3, 0x2C, 0xC3, 0xEE, 0xBF, 0x60, 0xDA, 0xC3, 0x44, 0xD4, 0x04, 0xBC,
    0x59, 0x90, 0xA6, 0xFB, 0xCC, 0xD2, 0x11, 0x03, 0x6F, 0xD2, 0x2F, 0xB2, 0xF1, 0x65, 0xD6, 0xFB,
    0xB6, 0x06, 0x45, 0x90, 0x41, 0x44, 0x9A, 0x02, 0xF2, 0xBE, 0xBC, 0xB5, 0xC1, 0x92, 0x4F, 0xE0,
    0xFE, 0x4C, 0x11, 0xF4, 0x45, 0x75, 0x6F, 0xFC, 0xBF, 0x55, 0xEA, 0xD1, 0x56, 0x11, 0x34, 0xA1,
    0xE7, 0x3F, 0xF0, 0x9E, 0xA7, 0xF0, 0xDA, 0x6D, 0xB4, 0x45, 0xEB, 0xF4, 0x5C, 0x3D, 0x59, 0x76,
    0x46, 0x26, 0x11, 0xF4, 0x9C, 0xF2, 0x6A, 0x05, 0x3E, 0xA3, 0x4D, 0xBF, 0xF6, 0x61, 0xC4, 0x21,
    0x4B, 0x67, 0xB5, 0x3E, 0x31, 0xFE, 0xBF, 0x3D, 0x0B, 0x4A, 0xCF, 0x11, 0x6E, 0x12, 0x11, 0x56,
    0xDC, 0x23, 0xB1, 0x4E, 0xAA, 0xBE, 0x0C, 0x2F, 0x32, 0x24, 0x9E, 0x5E, 0x04, 0x0D, 0x45, 0x3F,
    0x5C, 0x64, 0xF6, 0x54, 0xDF, 0xC6, 0xBB, 0xD0, 0xAC, 0xDC, 0xE5, 0xB6, 0x1B, 0xFE, 0x96, 0xE9,
    0xE3, 0x7B, 0xE1, 0x33, 0xFC, 0x02, 0x21, 0x9B, 0xEC, 0xAB, 0x42, 0x5D, 0xDF, 0xF1, 0xE4, 0xDB,
    0xDD, 0xBE, 0x30, 0x2D, 0x3A, 0xD3, 0xAA, 0x3E, 0xF0, 0xC6, 0x6E, 0xB1, 0xFC, 0x0C, 0x70, 0xF2,
    0x63, 0xB2, 0x40, 0x74, 0x4E, 0x11, 0x3C, 0xAC, 0x2A, 0x42, 0xEE, 0xE3, 0x31, 0x6B, 0xEE, 0x0E,
    0x15, 0x22, 0xFB, 0x7A, 0xCA, 0x4D, 0x15, 0x5E, 0x41, 0x56, 0x5C, 0x52, 0x61, 0xAF, 0x53, 0x7B,
    0xCB, 0x56, 0xF3, 0xA0, 0xC4, 0x53, 0xCD, 0x33, 0x00, 0x75, 0xA5, 0x00, 0x70, 0xEB, 0x0E, 0xDB,
    0x4C, 0x14, 0x4C, 0xFF, 0x19, 0x42, 0x03, 0xEC, 0xAE, 0xF3, 0xD4, 0xED, 0xD4, 0x21, 0x6D, 0xE2,
    0x24, 0x65, 0xF7, 0xD2, 0xD0, 0xD0, 0x1C, 0xB4, 0xB2, 0xD3, 0xAF, 0x42, 0xEA, 0xA2, 0x9D, 0xCA,
    0xFF, 0xBD, 0xF5, 0xBC, 0xBE, 0xB1, 0x29, 0x3C, 0xB6, 0x7F, 0x64, 0xC3, 0x05, 0x53, 0x33, 0xFE,
    0xAB, 0x1A, 0xA4, 0xBC, 0x27, 0xBE, 0xED, 0x02, 0x4B, 0x06, 0xEA, 0x93, 0x26, 0x12, 0xE7, 0x4C,
    0x72, 0xF6, 0x0F, 0x1E, 0x4F, 0xCC, 0xDA, 0x3F, 0x56, 0x4C, 0xD5, 0x63, 0x51, 0x07, 0x56, 0x3F,
    0x05, 0xEC, 0x61, 0x5A, 0x20, 0xEB, 0xC3, 0x26, 0x10, 0xE1, 0xAD, 0xD4, 0xCF, 0x4C, 0x6B, 0x74,
    0x3F, 0x6F, 0x4C, 0x3E, 0xE4, 0xCD, 0x0A, 0xE3, 0x04, 0x4A, 0x23, 0xE3, 0xE9, 0xD4, 0xD5, 0xBC,
    0x5E, 0xF4, 0xD6, 0xFB, 0xCB, 0xE5, 0xCE, 0xC6, 0x5C, 0x7F, 0xA0, 0x53, 0x52, 0xB4, 0xC5, 0xF5,
    0x03, 0x14, 0xA1, 0xE3, 0x15, 0x49, 0xD0, 0xDE, 0xA4, 0xD2, 0x42, 0x02, 0x1F, 0xC6, 0xBA, 0xF0,
    0xFE, 0xFF, 0xE9, 0x0B, 0x0D, 0x10, 0x43, 0xD4, 0xA2, 0x09, 0xD5, 0x60, 0xD0, 0x1D, 0xFE, 0x4E,
    0xBD, 0x6F, 0xD2, 0x2A, 0x13, 0x46, 0xBD, 0xF1, 0x45, 0x44, 0xFC, 0x01, 0xF3, 0x43, 0xEE, 0x03,
    0x76, 0xAE, 0x55, 0xF4, 0x9E, 0x35, 0x0F, 0x14, 0xE4, 0xCA, 0x4F, 0x75, 0x0E, 0x3F, 0x53, 0xA1,
    0xA1, 0x43, 0x5D, 0xCE, 0xC5, 0x32, 0xFA, 0x02, 0x63, 0xFA, 0xCD, 0x3D, 0x4F, 0x9C, 0x21, 0x1E,
    0xBE, 0x51, 0xBA, 0x12, 0xC2, 0xC1, 0xF3, 0xFA, 0x6E, 0x11, 0x15, 0x16, 0xFC, 0xB0, 0x5A, 0x21,
    0xEE, 0x0C, 0x02, 0xDB, 0x33, 0x25, 0x1C, 0x42, 0x22, 0xD0, 0xF0, 0x7D, 0xED, 0xCE, 0xC1, 0x5E,
    0x3C, 0x5C, 0x1B, 0x40, 0x15, 0xFA, 0x41, 0xA0, 0xBD, 0x0C, 0xD0, 0x11, 0x22, 0xFB, 0x07, 0x53,
    0x16, 0x15, 0xC4, 0xAE, 0x5D, 0xF6, 0xA0, 0xE3, 0xBD, 0xEF, 0x57, 0xCF, 0xB5, 0x2C, 0x33, 0x65,
    0x2B, 0xFC, 0x39, 0x66, 0xFA, 0xC1, 0xAF, 0xE4, 0xB7, 0x65, 0xCC, 0x69, 0xF1, 0xDC, 0xEE, 0x00,
    0xC3, 0xC0, 0x63, 0xB3, 0x3F, 0x66, 0xE6, 0xEA, 0x2B, 0x6A, 0x1E, 0xBF, 0xDA, 0xAC, 0x61, 0x1C,
    0x71, 0xB9, 0x1B, 0x5D, 0xF5, 0xAF, 0xB7, 0x36, 0x90, 0xA0, 0x2E, 0x13, 0xD6, 0xD5, 0x56, 0xD5,
    0xBB, 0x32, 0x49, 0x9A, 0x2C, 0x5E, 0xC4, 0xDE, 0xAC, 0x91, 0xE2, 0xAA, 0x51, 0x0E, 0x2F, 0x1B,
    0xF6, 0xDA, 0x4C, 0xB5, 0x24, 0x45, 0x45, 0x10, 0x01, 0x39, 0xCB, 0xE1, 0x41, 0x57, 0xCD, 0x46,
    0x09, 0x49, 0xB1, 0xFA, 0xEA, 0x2C, 0xF6, 0x6A, 0xCB, 0x95, 0xF1, 0x16, 0x06, 0xD0, 0xE7, 0xA4,
    0xEC, 0x6A, 0xD3, 0x42, 0x74, 0x4E, 0xEA, 0xC1, 0xFF, 0x03, 0xDD, 0x2F, 0xEC, 0x1A, 0x6F, 0x2E,
    0x2D, 0xB3, 0xDD, 0x6D, 0xF5, 0xF5, 0xC7, 0x6C, 0xD4, 0xEC, 0x2F, 0x6A, 0xF1, 0xDC, 0x00, 0x10,
    0x2C, 0x24, 0x59, 0x43, 0xC9, 0xEB, 0xD2, 0xF5, 0x1A, 0x6B, 0x3D, 0xFE, 0xFD, 0xD0, 0x09, 0xDA,
    0xB5, 0x0B, 0x03, 0xD1, 0x55, 0xDE, 0xF1, 0x55, 0xD6, 0x3B, 0x36, 0x3E, 0xAE, 0x62, 0xDD, 0x25,
    0x63, 0x37, 0xF3, 0x1F, 0x1C, 0xCA, 0x0D, 0xAF, 0x22, 0xC5, 0xEC, 0x0B, 0xAA, 0x3B, 0x9B, 0x65,
    0x27, 0x36, 0x46, 0x41, 0x31, 0xB7, 0xFE, 0x06, 0x42, 0x1F, 0x74, 0x9E, 0x44, 0x0F, 0x63, 0xA0,
    0xC0, 0xBA, 0xD6, 0xE3, 0x16, 0x56, 0xC6, 0x32, 0xDF, 0xFB, 0x59, 0x4F, 0x54, 0x51, 0xC3, 0x2B,
};

const uint8_t linear_0_bias[] = {
    0x15, 0x00, 0x00, 0x00, 0x05, 0x00, 0x00, 0x00, 0x08, 0x00, 0x00, 0x00, 0x03, 0x00, 0x00, 0x00,
    0x11, 0x00, 0x00, 0x00, 0x05, 0x00, 0x00, 0x00, 0xEB, 0xFF, 0xFF, 0xFF, 0x0F, 0x00, 0x00, 0x00,
    0xEE, 0xFF, 0xFF, 0xFF, 0x06, 0x00, 0x00, 0x00,
};

const uint8_t linear_0_output_scale[] = {
    0xFE, 0x0D, 0x74, 0x3D,
};

const uint8_t linear_0_output_zero_point[] = {
    0x00,
};

const uint8_t linear_0_input_zero_point[] = {
    0xFF,
};

const uint8_t linear_0_bias_scale[] = {
    0x62, 0xB8, 0x31, 0x3A,
};
