#include "lenet5_model.h"


const uint8_t constantpad2d_0_input_value_point[] = {
    0xF8,
};

const uint8_t conv2d_0_weight[] PROGMEM = {
    0x2E, 0x1F, 0x1C, 0x1F, 0x24, 0xCE, 0x30, 0x24, 0xDE, 0x4D, 0xE3, 0xED, 0x2E, 0xFD, 0x0F, 0xDC,
    0x32, 0xD3, 0x71, 0xEF, 0x5F, 0xE2, 0x1F, 0xEF, 0x0D,
};

const uint8_t conv2d_0_bias[] PROGMEM = {
    0xFE, 0xFF, 0xFF, 0xFF, 0xF8, 0xFF, 0xFF, 0xFF,
};

const uint8_t conv2d_0_output_scale[] = {
    0xA3, 0xAF, 0x8B, 0x3E,
};

const uint8_t conv2d_0_output_zero_point[] = {
    0xF8,
};

const uint8_t conv2d_0_input_zero_point[] = {
    0xF8,
};

const uint8_t conv2d_0_bias_scale[] PROGMEM = {
    0x33, 0x77, 0xA8, 0x3C,
};

const uint8_t conv2d_1_weight[] PROGMEM = {
    0x00, 0xFF, 0x0E, 0x02, 0xEF, 0x1F, 0xA0, 0xC9, 0xCC, 0xEB, 0xAD, 0x0B, 0xF3, 0x00, 0x11, 0x0D,
    0x21, 0xD1, 0x21, 0x22, 0x0E, 0x23, 0xD1, 0x01, 0x00, 0x02, 0xE1, 0x20, 0xDE, 0x3D, 0xD1, 0x20,
    0xE2, 0x0D, 0x34, 0x20, 0x33, 0xF1, 0x11, 0x0F, 0x00, 0xF0, 0x22, 0x23, 0x01, 0x34, 0xE3, 0x21,
    0xE1, 0x1F, 0xF1, 0x00, 0x21, 0x11, 0xF0, 0x35, 0xE2, 0x4F, 0x23, 0xDC, 0x32, 0xF3, 0x1E, 0x45,
    0x12, 0x1F, 0x44, 0xC1, 0x1B, 0x55, 0xCF, 0x3D, 0x34, 0xBE, 0x2C, 0x00, 0x11, 0xFE, 0xEE, 0x00,
    0x01, 0xCA, 0x32, 0x01, 0x0E, 0x12, 0x10, 0x32, 0xF0, 0x0F, 0x42, 0x02, 0x5E, 0x23, 0xF0, 0xE1,
    0x30, 0xF2, 0xFD, 0x1E, 0x33, 0xE2, 0x0F, 0x33, 0x04, 0x1F, 0x22, 0xFF, 0xF0, 0x22, 0xEE, 0xDC,
    0x11, 0xDB, 0x42, 0xE3, 0xCB, 0x31, 0xE2, 0xEB, 0x33, 0x13, 0x0F, 0x52, 0x33,
};

const uint8_t conv2d_1_bias[] PROGMEM = {
    0x8B, 0xFF, 0xFF, 0xFF, 0x4A, 0x00, 0x00, 0x00, 0x52, 0x00, 0x00, 0x00, 0x3C, 0x00, 0x00, 0x00,
    0x18, 0x00, 0x00, 0x00,
};

const uint8_t conv2d_1_output_scale[] = {
    0xC4, 0x1C, 0xB4, 0x3E,
};

const uint8_t conv2d_1_output_zero_point[] = {
    0xF8,
};

const uint8_t conv2d_1_input_zero_point[] = {
    0xF8,
};

const uint8_t conv2d_1_bias_scale[] PROGMEM = {
    0x56, 0x2D, 0x3D, 0x3C,
};

const uint8_t linear_0_weight[] PROGMEM = {
    0x00, 0xE0, 0x1C, 0x22, 0x11, 0x32, 0x02, 0x21, 0x01, 0xFF, 0x11, 0xF0, 0x10, 0xF1, 0xFF, 0x00,
    0x1F, 0x11, 0x0F, 0x01, 0x0D, 0x00, 0x11, 0x12, 0x21, 0xEE, 0xFF, 0xE2, 0xEF, 0xFE, 0xFF, 0xFF,
    0xCF, 0x0F, 0x00, 0xEC, 0x00, 0x10, 0xFF, 0xFF, 0xF2, 0x0F, 0x01, 0x00, 0x01, 0xFD, 0x21, 0x01,
    0x21, 0x11, 0x22, 0xFF, 0x30, 0x01, 0x11, 0x00, 0x0F, 0xE0, 0xEE, 0x10, 0xFE, 0x00, 0x11, 0x23,
    0x11, 0xF0, 0x21, 0xE2, 0x0E, 0x10, 0xFF, 0x0F, 0xF0, 0x0F, 0xFF, 0x01, 0x11, 0x2E, 0x10, 0xE0,
    0xF0, 0xF0, 0xFD, 0x10, 0xD0, 0x20, 0xEF, 0x0D, 0xEF, 0xEF, 0x11, 0x10, 0x3F, 0x12, 0x01, 0x11,
    0x11, 0x00, 0x12, 0x01, 0xED, 0xFE, 0xEF, 0xF0, 0xFF, 0x00, 0xF1, 0x00, 0x0F, 0x11, 0x11, 0x32,
    0xE3, 0xDD, 0xEE, 0xDE, 0xEE, 0x1F, 0xFF, 0x00, 0x11, 0x10, 0x21, 0x12, 0x11, 0x01, 0x10, 0x02,
    0xFE, 0x20, 0xF0, 0x00, 0x0F, 0x11, 0x00, 0x11, 0x01, 0x11, 0x01, 0x10, 0x0F, 0xF0, 0xDF, 0xFF,
    0x0F, 0x0F, 0x10, 0x11, 0x01, 0xF0, 0x22, 0x23, 0x31, 0x32, 0x13, 0x01, 0x11, 0xD0, 0xED, 0xEE,
    0x0F, 0xF0, 0x2D, 0x22, 0x11, 0x11, 0x12, 0xE0, 0xFF, 0xEF, 0xF0, 0xFE, 0xE0, 0x00, 0x10, 0x01,
    0xF0, 0x0F, 0xF0, 0xFF, 0x12, 0x00, 0xF0, 0x00, 0x10, 0xFF, 0xFF, 0x10, 0x21, 0x11, 0x00, 0x11,
    0x00, 0x00, 0x21, 0xFF, 0x10, 0x12, 0x00, 0x0F, 0x00, 0x01, 0x0F, 0x00, 0x00, 0x00, 0x11, 0x01,
    0x22, 0x12, 0x31, 0x34, 0x12, 0xF0, 0xEF, 0x00, 0x00, 0x1E, 0x11, 0x00, 0xF0, 0xFF, 0xCF, 0xDD,
    0x0F, 0x01, 0x00, 0xF0, 0x10, 0x21, 0x0F, 0x11, 0xD2, 0xEE, 0x0F, 0xBD, 0xBA, 0x1B, 0x11, 0x00,
    0x01, 0x01, 0x11, 0x00, 0x0F, 0x0F, 0xEF, 0xED, 0xFE, 0xDD, 0xFF, 0xE0, 0x0D, 0x11, 0xF0, 0x21,
    0x01, 0x00, 0x11, 0x10, 0x11, 0x01, 0x20, 0x11, 0x02, 0x12, 0x11, 0x11, 0x01, 0x10, 0xFF, 0x00,
    0xE0, 0x00, 0x11, 0x00, 0xFF, 0x0F, 0x01, 0x0F, 0x11, 0xF0, 0x11, 0x01, 0x10, 0x01, 0xFF, 0x10,
    0x12, 0x11, 0x00, 0x11, 0xE1, 0x11, 0x12, 0x0F, 0x0F, 0xF0, 0xEE, 0xDF, 0x10, 0x21, 0x02, 0x10,
    0x21, 0x01, 0x11, 0x00, 0xFE, 0xF0, 0xDF, 0xED, 0x0F, 0x1F, 0x01, 0x13, 0x00, 0x10, 0x00, 0x00,
    0xF0, 0x00, 0x00, 0x10, 0x11, 0x0E, 0x00, 0xF0, 0x00, 0x00, 0x0F, 0x00, 0x11, 0x00, 0x20, 0x02,
    0x11, 0xF1, 0x1F, 0x0F, 0xFF, 0x00, 0xE0, 0x0F, 0x00, 0x0F, 0x01, 0x00, 0x01, 0x0F, 0xF1, 0xF0,
    0x2F, 0x00, 0xF0, 0xF1, 0x01, 0x01, 0x20, 0x22, 0x10, 0xF1, 0x40, 0x12, 0xEF, 0x11, 0x00, 0xFF,
    0x11, 0x10, 0x2F, 0x12, 0x00, 0x00, 0xF0, 0xF0, 0x1F, 0xE0, 0x0F, 0x00, 0xEE, 0x10, 0xF0, 0x0F,
    0xFF, 0x00, 0x0F, 0xF0, 0xFF, 0xF0, 0x0E, 0x00, 0x1F, 0x10, 0xE0, 0x11, 0x00, 0x1E, 0x01, 0xEF,
    0x22, 0x10, 0x00, 0x01, 0x0F, 0x1E, 0xF1, 0x00, 0x10, 0x11, 0xFF, 0x00, 0xF1, 0x0F, 0xF1, 0xFF,
    0x00, 0xFE, 0x0E, 0xF0, 0xFF, 0xFF, 0xFE, 0xFF, 0xFF, 0xF1, 0x0F, 0x2E, 0x00, 0x00, 0x12, 0x01,
    0x00, 0x21, 0xE0, 0x1F, 0x21, 0xE1, 0xEF, 0xFF, 0x10, 0xF0, 0x1E, 0xF1, 0xFE, 0x00, 0xF1, 0xF0,
    0x11, 0xF1, 0xF0, 0xDD, 0x0E, 0xDE, 0xEE, 0xF0, 0xFF, 0x20, 0xE0, 0x10, 0x12, 0x00, 0x02, 0xF0,
    0x10, 0x12, 0xFF, 0x20, 0xF1, 0x0F, 0x00, 0xEE, 0x0F, 0x12, 0x10, 0xFF, 0xEE, 0x1D, 0x00, 0xEF,
    0xF0, 0x0E, 0x10, 0x11, 0xF0, 0x11, 0x12, 0x00, 0x11, 0x01, 0x11, 0x01, 0x20, 0x01, 0xF0, 0xF0,
    0xFF, 0x0F, 0xEF, 0x0F, 0x01, 0x02, 0x10, 0x00, 0x1F, 0x00, 0xFF, 0x1F, 0x11, 0x01, 0x11, 0x01,
    0xF0, 0x11, 0x11, 0x0F, 0x11, 0xE0, 0x0F, 0xFF, 0xED, 0xFF, 0xEF, 0xEF, 0xEF, 0x1F, 0x01, 0xF1,
    0x00, 0x00, 0x0F, 0x01, 0x01, 0xEF, 0x00, 0xF0, 0xEE, 0x00, 0x21, 0x01, 0x10, 0x12, 0xE0, 0x11,
    0xF1, 0x0F, 0xF1, 0xF0, 0x10, 0x10, 0x11, 0xF0, 0xF0, 0x00, 0xFF, 0xFF, 0x01, 0xD0, 0x1F, 0x01,
    0xEF, 0x10, 0xE0, 0xFF, 0xEF, 0x0F, 0x00, 0x10, 0xF1, 0xFF, 0x11, 0x00, 0x00, 0x11, 0x00, 0x02,
    0xFF, 0x1E, 0xFF, 0xFE, 0xDF, 0x0D, 0xDF, 0x0D, 0xF0, 0xED, 0xEE, 0x0F, 0x21, 0x33, 0x00, 0x11,
    0x21, 0x01, 0x10, 0x00, 0xEE, 0xFF, 0xFF, 0xDE, 0xF0, 0x0F, 0x1F, 0x00, 0xE0, 0xF1, 0x0F, 0x10,
    0xF0, 0xEE, 0x10, 0xE0, 0x0F, 0xFE, 0xE0, 0x11, 0x10, 0x01, 0x00, 0x00, 0xF0, 0xF0, 0x0F, 0x11,
    0x00, 0xE0, 0xEC, 0x1F, 0xEE, 0xF1, 0xF1, 0x0F, 0x1F, 0xEF, 0x11, 0x0F, 0x10, 0xF2, 0xE0, 0x0F,
    0x00, 0x00, 0x0F, 0xF0, 0xEF, 0xF0, 0xFF, 0xEF, 0xDC, 0xED, 0xF0, 0x00, 0xF3, 0x1F, 0x31, 0xF0,
    0x10, 0x01, 0x00, 0xDF, 0x00, 0xF0, 0x1A, 0x11, 0x21, 0x12, 0x11, 0x10, 0x01, 0xF0, 0x12, 0x00,
    0x11, 0x10, 0x00, 0x00, 0xE0, 0xFF, 0x00, 0xFF, 0xFF, 0x00, 0x01, 0x10, 0x10, 0x11, 0x01, 0x1E,
    0x32, 0x11, 0x00, 0xF0, 0x0F, 0xFF, 0x0F, 0xEF, 0x0F, 0x00, 0x1F, 0xE0, 0x00, 0x11, 0x0F, 0x10,
    0x01, 0x00, 0x00, 0x00, 0x0F, 0x00, 0xED, 0x10, 0x12, 0x00, 0xDE, 0x00, 0xFF, 0x0D, 0x11, 0xE0,
    0x11, 0x11, 0x01, 0xF1, 0x10, 0xEE, 0xEE, 0xDF, 0xFE, 0x10, 0xFE, 0x11, 0xF3, 0x10, 0x12, 0x0E,
    0xEF, 0xEF, 0x0F, 0xF0, 0xEE, 0x0F, 0xF0, 0x10, 0x10, 0x11, 0x00, 0x10, 0x00, 0x0F, 0xEE, 0x10,
    0xF1, 0xFE, 0x21, 0x00, 0xF0, 0x10, 0x00, 0x10, 0x00, 0x00, 0x10, 0x11, 0x01, 0x00, 0x11, 0xF0,
    0xF0, 0xFF, 0x0E, 0xF0, 0x0F, 0x22, 0x12, 0x24, 0x13, 0x2F, 0x21, 0x12, 0x00, 0x11, 0xE0, 0xF0,
    0xFE, 0xFE, 0xFF, 0x1F, 0x11, 0x11, 0x01, 0x00, 0xC0, 0xFE, 0xF0, 0xFD, 0x00, 0xE1, 0x0F, 0x00,
    0x01, 0xE0, 0x2D, 0x11, 0xF0, 0x22, 0x01, 0x01, 0x00, 0x10, 0x0F, 0x00, 0xF0, 0x21, 0x02, 0x10,
    0x00, 0x11, 0x11, 0x21, 0x10, 0x21, 0x11, 0x11, 0x01, 0x01, 0x00, 0x10, 0x10, 0xF1, 0xF0, 0x00,
    0x0F, 0xFF, 0xDF, 0xDF, 0xCD, 0x2B, 0x01, 0x31, 0x11, 0x00, 0x01, 0x00, 0xFF, 0xF0, 0xFF, 0x0E,
    0xFF, 0xEE, 0x00, 0x0F, 0x01, 0xF0, 0x00, 0xF1, 0xF0, 0x1F, 0x0F, 0x0F, 0xF0, 0xFE, 0x1F, 0xEE,
    0xDD, 0xEF, 0x0F, 0x00, 0xFF, 0x00, 0x00, 0xF0, 0x1E, 0x11, 0xEF, 0x11, 0x10, 0x00, 0x00, 0x11,
    0x00, 0x00, 0x01, 0x00, 0x20, 0x10, 0x11, 0x10, 0x11, 0x11, 0x10, 0x11, 0x00, 0x11, 0x00, 0x22,
    0x11, 0x2F, 0xF1, 0xFE, 0xEF, 0x00, 0xE0, 0xFF, 0x1F, 0x00, 0x01, 0x01, 0x00, 0x00, 0x01, 0x0F,
    0xFD, 0x00, 0x21, 0xF0, 0x00, 0xF2, 0x0F, 0x01, 0x10, 0xF1, 0xFE, 0x00, 0xCD, 0x01, 0x00, 0x01,
    0x0F, 0x21, 0xEF, 0xFE, 0x00, 0xEE, 0xEE, 0xEE, 0xEF, 0x0D, 0x01, 0x20, 0x10, 0x01, 0x11, 0x23,
    0x21, 0x12, 0x00, 0x11, 0xF0, 0x1F, 0x01, 0x11, 0x00, 0x00, 0x11, 0x0F, 0x11, 0x0F, 0x11, 0xF0,
    0x33, 0xF2, 0x1D, 0x12, 0xD0, 0x11, 0x00, 0x0F, 0xF0, 0x10, 0xFD, 0x0E, 0xF1, 0x0F, 0x21, 0x11,
    0x11, 0x01, 0x11, 0x11, 0x00, 0x0F, 0x00, 0xFF, 0xFF, 0xF1, 0x0F, 0x1E, 0x01, 0xEF, 0x02, 0xE0,
    0x1E, 0xEE, 0xCD, 0xDE, 0xDD, 0xEC, 0xFF, 0xEF, 0x22, 0x12, 0xF0, 0x00, 0x0F, 0x1F, 0x21, 0xF2,
    0x21, 0x12, 0x11, 0x10, 0x11, 0x0F, 0xF0, 0x00, 0x11, 0x11, 0x01, 0x21, 0xF0, 0xFF, 0xDF, 0xBB,
    0x9B, 0x10, 0xEE, 0x0D, 0x00, 0xCF, 0x11, 0x11, 0x00, 0x11, 0x32, 0xFF, 0x10, 0xF1, 0xFF, 0xEF,
    0xFE, 0x00, 0x10, 0x12, 0x21, 0x00, 0x01, 0xF1, 0xEF, 0x0E, 0x0F, 0x11, 0x02, 0x0F, 0x10, 0x1F,
    0x23, 0x20, 0x21, 0x12, 0x00, 0xFF, 0xFF, 0xEF, 0xE0, 0x10, 0x11, 0x21, 0x23, 0x22, 0x00, 0x11,
    0x10, 0x01, 0x00, 0xEE, 0xED, 0xFE, 0x00, 0xE0, 0xFF, 0xFF, 0x0D, 0xDD, 0xBB, 0xBC, 0xCB, 0xEC,
    0xFE, 0x0F, 0xFF, 0xEF, 0xFE, 0x00, 0xFF, 0x0F, 0x01, 0xDE, 0xFE, 0xDE, 0x01, 0x00, 0x1F, 0xF0,
    0xF0, 0x02, 0xFF, 0x2F, 0xF0, 0xE0, 0xFF, 0x0F, 0x1F, 0x22, 0x01, 0x10, 0x01, 0x0F, 0x00, 0xFF,
    0x11, 0x01, 0x00, 0x20, 0xF1, 0x21, 0x02, 0x11, 0x21, 0x01, 0x20, 0x13, 0xF1, 0x12, 0x01, 0x12,
    0x11, 0xF1, 0xFF, 0xF0, 0xFE, 0x11, 0x11, 0x11, 0x11, 0x01, 0x10, 0x00, 0xFE, 0xCE, 0xFF, 0xED,
    0xDE, 0xEE, 0xDD, 0xFE, 0xFF, 0x1F, 0x00, 0x32, 0x01, 0x11, 0xF2, 0xF0, 0x00, 0x0F, 0xFF, 0x1F,
    0x00, 0x10, 0x12, 0x11, 0x11, 0x12, 0xF0, 0x1F, 0x11, 0xF1, 0x00, 0x00, 0x0D, 0xF0, 0xFE, 0x21,
    0xF1, 0x1F, 0x12, 0x00, 0x01, 0xF0, 0x10, 0xF1, 0x10, 0x23, 0x00, 0x10, 0x11, 0x00, 0x0F, 0xF1,
    0x10, 0xF0, 0x0F, 0xF0, 0xF0, 0xFD, 0xFF, 0xFF, 0x00, 0x00, 0x23, 0x01, 0xF1, 0xF0, 0x11, 0x00,
    0x00, 0xF0, 0xF0, 0xEE, 0xDD, 0xED, 0x1E, 0x10, 0x22, 0x0F, 0x0F, 0xF0, 0x00, 0x01, 0xEF, 0xFE,
    0x3E, 0xF1, 0x0F, 0x45, 0x23, 0x03, 0x01, 0xF0, 0x0E, 0x00, 0xF1, 0xED, 0x0F, 0x00, 0xF0, 0x0F,
    0x22, 0x02, 0x00, 0x31, 0x23, 0x0F, 0x42, 0xF0, 0x1F, 0x02, 0xF0, 0x10, 0x00, 0xEE, 0x1E, 0xEF,
    0xFE, 0x00, 0x10, 0x11, 0x00, 0x21, 0xFF, 0xFF, 0x10, 0x23, 0x21, 0x12, 0x01, 0x1D, 0x10, 0xE0,
    0x10, 0x22, 0x01, 0x10, 0x02, 0xFF, 0x0F, 0x11, 0xF0, 0x0F, 0x0F, 0x00, 0x00, 0x10, 0x10, 0xF0,
    0x00, 0x01, 0x00, 0x0F, 0xFF, 0xEF, 0x0E, 0x0F, 0xF0, 0x01, 0xFE, 0x00, 0xE0, 0xED, 0x12, 0x0F,
    0x0F, 0x31, 0x11, 0x21, 0x01, 0x0F, 0x12, 0xFF, 0x10, 0xF0, 0x0F, 0x01, 0x0F, 0x01, 0x00, 0x10,
    0x10, 0x10, 0x11, 0x01, 0x00, 0x00, 0x21, 0x0F, 0x10, 0xF1, 0xEE, 0xDD, 0xEF, 0xFF, 0x10, 0x0F,
    0x0F, 0x13, 0x11, 0x32, 0x01, 0x31, 0xEF, 0xFF, 0x00, 0xFF, 0x00, 0x10, 0x12, 0x01, 0x10, 0x31,
    0x00, 0x00, 0xF0, 0xFF, 0xFE, 0x0F, 0x00, 0xF0, 0x0F, 0x0F, 0xFF, 0xEF, 0x1E, 0x0F, 0xF0, 0x00,
    0x10, 0x22, 0x22, 0x22, 0x12, 0xF0, 0xF0, 0xED, 0xFF, 0xEE, 0x0F, 0xFF, 0x00, 0xF1, 0x0F, 0x0F,
    0xEF, 0x0F, 0xEF, 0x10, 0xF1, 0x2E, 0x12, 0xFF, 0xEF, 0x0E, 0xF1, 0x0F, 0xFF, 0x0F, 0xEF, 0xFE,
    0x00, 0xFF, 0x11, 0x10, 0x10, 0xFF, 0x00, 0xF0, 0x0F, 0xDF, 0xFF, 0xEF, 0x21, 0x11, 0x21, 0x33,
    0x32, 0x31, 0x12, 0xE0, 0x0F, 0x01, 0xFE, 0xFF, 0xE0, 0x20, 0x22, 0x10, 0x33, 0xF1, 0x1E, 0x23,
    0xFE, 0x11, 0xFF, 0x10, 0xE0, 0x31, 0x02, 0x1F, 0x12, 0x11, 0xFE, 0xEF, 0x1D, 0x00, 0x0F, 0x11,
    0x00, 0x11, 0xF0, 0x10, 0xF0, 0x00, 0x01, 0xF0, 0xED, 0x00, 0x0F, 0x0F, 0x0F, 0xF0, 0xF0, 0x0F,
    0x0E, 0x0F, 0xDF, 0xDC, 0x0E, 0x10, 0x00, 0x00, 0x02, 0x00, 0x10, 0x0F, 0x10, 0x11, 0x10, 0xD2,
    0xEE, 0xDD, 0xFF, 0x00, 0x00, 0x11, 0x21, 0xFF, 0x10, 0x01, 0x01, 0x0F, 0x20, 0x13, 0x01, 0xF1,
    0x10, 0x10, 0x00, 0x0F, 0xF0, 0x01, 0x00, 0x20, 0x02, 0x00, 0x00, 0x0F, 0x10, 0x00, 0x00, 0xF1,
    0x12, 0x11, 0x11, 0x00, 0xFE, 0x0D, 0x00, 0xDF, 0xFF, 0x00, 0x0F, 0xFF, 0xF0, 0x00, 0x10, 0x11,
    0x21, 0xC0, 0xFD, 0x10, 0xFD, 0x10, 0xF1, 0x00, 0x10, 0x0F, 0x11, 0x12, 0x10, 0x12, 0x0F, 0xF0,
    0xEF, 0xFF, 0xFE, 0xFE, 0xFF, 0xEF, 0x0F, 0x10, 0x00, 0x00, 0x11, 0x00, 0x1E, 0x11, 0x01, 0x0F,
    0x00, 0x00, 0xEE, 0xFF, 0xFF, 0x00, 0xEE, 0x11, 0x00, 0x11, 0x00, 0x00, 0x00, 0x00, 0xF0, 0x12,
    0x11, 0x21, 0x32, 0xD2, 0xCB, 0xCA, 0xF0, 0xDE, 0x2C, 0x22, 0xEE, 0x11, 0x12, 0x10, 0xF0, 0x2F,
    0x00, 0xFF, 0x0F, 0x00, 0xF0, 0x1F, 0x12, 0xE1, 0xFF, 0x11, 0x0F, 0xFF, 0x01, 0x10, 0xF1, 0x1F,
    0x11, 0x01, 0xF0, 0x0F, 0x21, 0xFF, 0x00, 0x0F, 0x21,
};

const uint8_t linear_0_bias[] PROGMEM = {
    0xFF, 0xFF, 0xFF, 0xFF, 0x00, 0x00, 0x00, 0x00, 0x00, 0x00, 0x00, 0x00, 0x01, 0x00, 0x00, 0x00,
    0x01, 0x00, 0x00, 0x00, 0x01, 0x00, 0x00, 0x00, 0x02, 0x00, 0x00, 0x00, 0xFF, 0xFF, 0xFF, 0xFF,
    0x02, 0x00, 0x00, 0x00, 0x00, 0x00, 0x00, 0x00, 0xFF, 0xFF, 0xFF, 0xFF, 0xFE, 0xFF, 0xFF, 0xFF,
    0x00, 0x00, 0x00, 0x00, 0x00, 0x00, 0x00, 0x00, 0x04, 0x00, 0x00, 0x00, 0x03, 0x00, 0x00, 0x00,
    0xFD, 0xFF, 0xFF, 0xFF, 0xFF, 0xFF, 0xFF, 0xFF, 0x00, 0x00, 0x00, 0x00, 0x02, 0x00, 0x00, 0x00,
    0xFF, 0xFF, 0xFF, 0xFF, 0x02, 0x00, 0x00, 0x00, 0xFF, 0xFF, 0xFF, 0xFF, 0x01, 0x00, 0x00, 0x00,
    0x03, 0x00, 0x00, 0x00, 0x00, 0x00, 0x00, 0x00,
};

const uint8_t linear_0_output_scale[] = {
    0xEE, 0x7D, 0xD8, 0x3E,
};

const uint8_t linear_0_output_zero_point[] = {
    0xF8,
};

const uint8_t linear_0_input_zero_point[] = {
    0xF8,
};

const uint8_t linear_0_bias_scale[] PROGMEM = {
    0x6F, 0xF3, 0x36, 0x3D,
};

const uint8_t linear_1_weight[] PROGMEM = {
    0x0F, 0xDC, 0xF3, 0x01, 0x3F, 0xE2, 0x1D, 0xA3, 0x30, 0x03, 0x0A, 0x4B, 0xD2, 0xC2, 0x2D, 0x0F,
    0xC3, 0xF3, 0xDC, 0x2C, 0x34, 0x1C, 0x21, 0x01, 0xFF, 0xE3, 0xB2, 0xBD, 0x2E, 0x3D, 0xED, 0xFF,
    0x0B, 0x2C, 0x33, 0x63, 0xDE, 0xE1, 0xEE, 0xB4, 0xC2, 0x21, 0xAC, 0xC2, 0xD1, 0xF1, 0xCE, 0x0E,
    0xDD, 0xEC, 0xD2, 0x1E, 0x11, 0x23, 0x2C, 0xDF, 0x2F, 0xFE, 0x00, 0xFB, 0xAE, 0xD1, 0x32, 0xCA,
    0x0F, 0x2C, 0xC1, 0xD2, 0x1F, 0x2E, 0x02, 0x12, 0xBE, 0x1F, 0x0D, 0xC1, 0x11, 0xD1, 0x2F, 0x09,
    0x10, 0x0D, 0x0D, 0x2C, 0x2E, 0xDE, 0xE3, 0x21, 0x11, 0x13, 0xE3, 0xB2, 0x1E, 0x13, 0x0D, 0x0D,
    0x0F, 0xD2, 0x21, 0xDE, 0x0E, 0xE1, 0x42, 0xD9, 0x2E, 0xB0, 0x0E, 0xF0, 0xCF, 0xE0, 0x01, 0xB1,
    0xEF, 0xFF, 0xD1, 0xD1, 0x2E, 0x0A, 0x32, 0xB2, 0x10, 0x12, 0x4F, 0xB1, 0x2F, 0xDD, 0xB0, 0x30,
    0xEB, 0x20,
};

const uint8_t linear_1_bias[] PROGMEM = {
    0xFF, 0xFF, 0xFF, 0xFF, 0x01, 0x00, 0x00, 0x00, 0xFD, 0xFF, 0xFF, 0xFF, 0xFD, 0xFF, 0xFF, 0xFF,
    0xFE, 0xFF, 0xFF, 0xFF, 0x03, 0x00, 0x00, 0x00, 0xFD, 0xFF, 0xFF, 0xFF, 0x00, 0x00, 0x00, 0x00,
    0x03, 0x00, 0x00, 0x00, 0x00, 0x00, 0x00, 0x00,
};

const uint8_t linear_1_output_scale[] = {
    0x8F, 0x8E, 0x09, 0x3F,
};

const uint8_t linear_1_output_zero_point[] = {
    0x02,
};

const uint8_t linear_1_input_zero_point[] = {
    0xF8,
};

const uint8_t linear_1_bias_scale[] PROGMEM = {
    0xE3, 0x61, 0x13, 0x3D,
};
