#include "uno_model.h"


const uint8_t conv2d_0_weight[] PROGMEM = {
    0x3D, 0xC2, 0xAE, 0x10, 0x12, 0xFD, 0x04, 0x2F, 0x23, 0xFC, 0xEF, 0x0C, 0x11, 0x00, 0x00, 0x1F,
    0xF0, 0xD0, 0x12, 0x02, 0xBB, 0x0F, 0x0E, 0x9C, 0xDB,
};

const uint8_t conv2d_0_bias[] PROGMEM = {
    0x13, 0x00, 0x00, 0x00, 0x55, 0x00, 0x00, 0x00,
};

const uint8_t conv2d_0_output_scale[] = {
    0xDD, 0x0B, 0x02, 0x3F,
};

const uint8_t conv2d_0_output_zero_point[] = {
    0x03,
};

const uint8_t conv2d_0_input_zero_point[] = {
    0xF8,
};

const uint8_t conv2d_0_bias_scale[] = {
    0x38, 0xB2, 0x4E, 0x3C,
};

const uint8_t conv2d_1_weight[] PROGMEM = {
    0x0F, 0x10, 0x01, 0x0F, 0x00, 0x00, 0x00, 0x02, 0x00, 0x21, 0x01, 0x22, 0x02, 0xBD, 0x0F, 0xCE,
    0x1D, 0xD3, 0xFC, 0x22, 0xED, 0x10, 0x01, 0x00, 0x10, 0x00, 0xDF, 0xE0, 0xFF, 0x10, 0xEF, 0x11,
    0x12, 0x32, 0x01, 0x22, 0x00, 0x10, 0x11, 0x01, 0x10, 0x00, 0x1F, 0xF1, 0xEE, 0xE0, 0xFE, 0xE0,
    0x10, 0x11, 0x1F, 0xF1, 0xEF, 0xFF, 0x0D, 0xFF, 0xEE, 0x1E, 0x10, 0xF1, 0x10, 0x11, 0x40, 0x64,
    0x24, 0x21, 0x53, 0xD3, 0xED, 0x20, 0xDC, 0xEC, 0x00, 0x0F, 0xFF, 0xFF, 0xFF, 0x0F, 0x00, 0xEF,
    0x1E, 0x01, 0xC0, 0x21, 0x11, 0x2D, 0x11, 0xF1, 0xF0, 0x00, 0xF0, 0x00, 0x21, 0x01, 0x20, 0x21,
    0x11, 0x02, 0x12, 0x01, 0xFF, 0x00, 0x01, 0x10, 0x00, 0x1E, 0xF0, 0xE0, 0xEE, 0x00, 0xE1, 0xFF,
    0x3E, 0x01, 0x0E, 0x11, 0x23, 0x41, 0x35, 0x00, 0x13, 0x00, 0xF2, 0x10, 0x10, 0x01, 0x12, 0x21,
    0x12, 0x43, 0x42, 0x12, 0x13, 0x33, 0x21, 0xFF, 0x13, 0xD1, 0xCF, 0xDD, 0xDA, 0xD9, 0xBD, 0xEE,
    0x02, 0xFF, 0x20, 0x10, 0x00, 0x00, 0x12, 0x22, 0x01, 0x1F, 0x22, 0xF0, 0x0F, 0x01, 0x10, 0x0F,
    0x11, 0x12, 0xCF, 0xED, 0xF0, 0xFE, 0x0F, 0xE0, 0xFF, 0x00, 0xFE, 0x01, 0x10, 0x01, 0x01, 0xF0,
    0x20, 0x01, 0x21, 0xF0, 0x00, 0x11, 0x0F, 0x11, 0x00, 0x22, 0x22, 0x10, 0x12, 0xE1, 0x31, 0xE2,
    0x2D, 0xE1, 0xEF, 0x02, 0x01, 0x4D, 0x03, 0xEF, 0x11, 0x12, 0x11, 0x10, 0x11, 0x0F, 0xE0, 0xF2,
    0x21, 0x00, 0x21, 0x03, 0x01, 0x01, 0x1F, 0xEF, 0xFE, 0xED, 0x0E, 0xE0, 0xFD, 0x01, 0x0F, 0x21,
    0xF1,
};

const uint8_t conv2d_1_bias[] PROGMEM = {
    0x0A, 0x00, 0x00, 0x00, 0x04, 0x00, 0x00, 0x00, 0xFD, 0xFF, 0xFF, 0xFF, 0xAC, 0xFF, 0xFF, 0xFF,
    0xA3, 0xFF, 0xFF, 0xFF, 0x30, 0x00, 0x00, 0x00, 0x27, 0x00, 0x00, 0x00, 0xC0, 0xFF, 0xFF, 0xFF,
    0x3B, 0x00, 0x00, 0x00,
};

const uint8_t conv2d_1_output_scale[] = {
    0xAC, 0x71, 0x0E, 0x3F,
};

const uint8_t conv2d_1_output_zero_point[] = {
    0x00,
};

const uint8_t conv2d_1_input_zero_point[] = {
    0x03,
};

const uint8_t conv2d_1_bias_scale[] = {
    0x59, 0xFE, 0x19, 0x3D,
};

const uint8_t linear_0_weight[] PROGMEM = {
    0xBD, 0xAA, 0xED, 0xCD, 0xFE, 0x01, 0x10, 0x31, 0xF0, 0x0E, 0x13, 0x00, 0xE1, 0xEE, 0x00, 0xFF,
    0x01, 0x30, 0x00, 0x10, 0x1F, 0x00, 0x11, 0xD0, 0x0F, 0x01, 0x00, 0x20, 0x00, 0x11, 0x02, 0x0F,
    0xFF, 0xEF, 0xCD, 0xFF, 0xBE, 0x0A, 0xEF, 0xFE, 0xEF, 0x0D, 0xFF, 0x12, 0x01, 0x10, 0x11, 0x10,
    0xF0, 0x00, 0xE0, 0x0E, 0xDD, 0x1E, 0xD0, 0x0E, 0xF0, 0x0F, 0x13, 0x01, 0x12, 0x01, 0x11, 0x02,
    0xEF, 0x00, 0xCE, 0xFB, 0xEE, 0xFD, 0xF0, 0x0F, 0x00, 0xF1, 0x0F, 0x1F, 0xF0, 0x1E, 0x12, 0x11,
    0x22, 0x12, 0xF0, 0xEF, 0xEE, 0xF0, 0x0E, 0xDE, 0xF0, 0xED, 0xCC, 0xFF, 0xE1, 0x00, 0x20, 0xF0,
    0x20, 0xF2, 0xFF, 0xF0, 0x0F, 0x0F, 0x0F, 0x00, 0x20, 0x02, 0x0F, 0x21, 0x01, 0xD0, 0x23, 0x00,
    0x0C, 0x31, 0x13, 0xEF, 0x30, 0xE3, 0xEE, 0x02, 0xEF, 0x1E, 0xD1, 0xFE, 0xF1, 0x00, 0xFF, 0x21,
    0xE1, 0x10, 0xF1, 0xF0, 0x00, 0xF0, 0x10, 0x12, 0x11, 0x22, 0xEF, 0x0F, 0x01, 0x1F, 0x11, 0x01,
    0x10, 0x11, 0xDF, 0x22, 0x12, 0x20, 0xF1, 0xE0, 0x0D, 0x1E, 0xF0, 0xE2, 0x00, 0x10, 0xFD, 0x00,
    0x00, 0x00, 0x00, 0x42, 0x56, 0x11, 0x00, 0x00, 0xE0, 0xEE, 0x11, 0x0F, 0xF1, 0xFE, 0x00, 0x22,
    0x22, 0x33, 0x01, 0x21, 0x10, 0x12, 0x00, 0x10, 0x02, 0xEF, 0x20, 0x01, 0xEF, 0x1F, 0x01, 0x00,
    0x21, 0xF0, 0x1F, 0x00, 0x10, 0x01, 0x11, 0x01, 0x11, 0xF0, 0x1F, 0x11, 0xF1, 0x10, 0x11, 0xF0,
    0x11, 0x01, 0x30, 0x23, 0xF1, 0xEF, 0x20, 0x0F, 0x10, 0xC2, 0x0F, 0x10, 0xEC, 0x10, 0xE1, 0x0F,
    0x21, 0x01, 0x00, 0x1E, 0x12, 0xF0, 0x00, 0x1F, 0xFF, 0x0F, 0x00, 0x22, 0x22, 0xE0, 0xF0, 0x00,
    0x0E, 0x10, 0x11, 0x12, 0x41, 0x12, 0x10, 0x21, 0xF1, 0xED, 0xFF, 0x21, 0xF1, 0x1F, 0x02, 0xFF,
    0x1F, 0xE1, 0xFE, 0xFF, 0xCC, 0xFB, 0x00, 0xFF, 0xFF, 0xF0, 0x00, 0xFF, 0xED, 0xEE, 0xD0, 0x00,
    0x3C, 0x23, 0xB0, 0xF1, 0xEE, 0xDF, 0xED, 0x0E, 0xEE, 0x1F, 0xF2, 0x10, 0x30, 0x01, 0xF0, 0xF0,
    0xEE, 0xEE, 0xF0, 0xF0, 0xFF, 0x2F, 0x0F, 0xFF, 0xEF, 0x00, 0xDE, 0xFD, 0x1F, 0x20, 0xF2, 0x10,
    0x22, 0x20, 0x10, 0xD0, 0x10, 0xF1, 0x0E, 0xFD, 0xF0, 0xDD, 0xFC, 0x0E, 0xEF, 0x00, 0xF1, 0x1F,
    0x02, 0xFF, 0x1F, 0x01, 0xE0, 0x0F, 0x11, 0xF0, 0x11, 0x21, 0x0E, 0x11, 0x02, 0x10, 0xF1, 0x0F,
    0xEF, 0x1C, 0x22, 0x01, 0x11, 0x00, 0xE1, 0xFE, 0x00, 0x0E, 0x01, 0x1F, 0x11, 0x10, 0x11, 0x11,
    0xE1, 0x10, 0x00, 0x33, 0x03, 0x1E, 0x11, 0xEF, 0xF1, 0xDE, 0xDF, 0xFE, 0x11, 0xEF, 0xED, 0x3F,
    0xF3, 0xCD, 0x21, 0x21, 0xE0, 0x0E, 0x21, 0x0E, 0xFF, 0xE0, 0xFE, 0xF0, 0xDE, 0x01, 0x0E, 0x12,
    0xCF, 0x11, 0xF1, 0xFE, 0xFF, 0x0F, 0x0F, 0x22, 0x11, 0x20, 0x13, 0xEE, 0x11, 0xF2, 0xFF, 0x00,
    0x22, 0x23, 0x10, 0x11, 0x10, 0xCD, 0x0E, 0xF0, 0x0F, 0xFE, 0x0F, 0xFF, 0x0F, 0xF0, 0x00, 0x10,
    0xFF, 0xF0, 0x10, 0xF0, 0x0E, 0x0F, 0x0F, 0x22, 0xDF, 0x0F, 0x11, 0x01, 0x00, 0x01, 0x01, 0x0F,
    0x10, 0xFF, 0xFF, 0xF0, 0xFE, 0x0F, 0x11, 0x12, 0x00, 0x11, 0xF1, 0xFE, 0x10, 0xF1, 0x10, 0x1F,
    0x10, 0x02, 0xEF, 0x10, 0x12, 0x0F, 0x11, 0x01, 0x10, 0xF2, 0x0F, 0x22, 0x1E, 0x22, 0x21, 0x12,
    0x00, 0xF1, 0x00, 0x00, 0x11, 0xEF, 0x23, 0xF1, 0x2B, 0xF1, 0xCD, 0x02, 0x10, 0xF1, 0xFF, 0xFF,
    0xFE, 0xCF, 0x0C, 0xDF, 0xCC, 0xD0, 0xEC, 0x11, 0x01, 0x0F, 0xF1, 0xFF, 0x01, 0xFF, 0x00, 0x10,
    0x11, 0x10, 0x22, 0xF1, 0x11, 0xE1, 0x2F, 0x12, 0x0E, 0x00, 0x10, 0x20, 0x11, 0x11, 0x10, 0xF0,
    0x00, 0x00, 0x01, 0x00, 0x10, 0x10, 0x21, 0x12, 0xED, 0xCD, 0xCE, 0xCC, 0xEC, 0x01, 0x00, 0x0F,
    0x00, 0x01, 0x00, 0x00, 0xFF, 0x10, 0x01, 0xEC, 0xFF, 0xFF, 0xFF, 0x0F, 0x01, 0x11, 0xFF, 0x00,
    0xEF, 0x10, 0x00, 0x0F, 0x00, 0x01, 0x00, 0x00, 0x01, 0x01, 0x11, 0x0D, 0x11, 0xD1, 0x0F, 0xE1,
    0xCC, 0xAC, 0x3D, 0xE1, 0xBC, 0x23, 0xDE, 0x2E, 0x02, 0x00, 0x01, 0x00, 0xF0, 0x01, 0x01, 0xF0,
    0x00, 0x0F, 0x11, 0xF0, 0x00, 0xF1, 0x00, 0xF0, 0x10, 0x00, 0xF0, 0x1F, 0x01, 0x10, 0x2E, 0x11,
    0xE1, 0x0F, 0x00, 0xF0, 0x20, 0x02, 0x00, 0x21, 0xDE, 0xEC, 0x0E, 0xEE, 0xEE, 0xEF, 0x0F, 0xE0,
    0x0F, 0x11, 0x00, 0x21, 0xF4, 0x2F, 0x14, 0xED, 0x41, 0xC0, 0x0D, 0x12, 0x0E, 0x00, 0x00, 0xF0,
    0xEF, 0xF0, 0xED, 0x1F, 0xF0, 0x00, 0x12, 0xE0, 0x1D, 0xF0, 0xED, 0x00, 0xFF, 0x31, 0x12, 0xF0,
    0x22, 0x00, 0x20, 0x01, 0x11, 0x02, 0xFF, 0xF0, 0xEF, 0x0F, 0xFF, 0x00, 0xFE, 0x0F, 0x01, 0x11,
    0x00, 0x10, 0x01, 0x10, 0x10, 0x00, 0x41, 0x12, 0xEF, 0x23, 0x01, 0x22, 0x11, 0x11, 0x01, 0x00,
    0x1F, 0x00, 0xDF, 0x01, 0xEF, 0x1D, 0xFF, 0x0F, 0xFF, 0x10, 0x02, 0x00, 0x01, 0x12, 0x11, 0x0F,
    0x01, 0x11, 0x10, 0xF0, 0x0F, 0xEF, 0xEC, 0xFF, 0xCE, 0x0B, 0xCF, 0xBB, 0x1F, 0x01, 0x0F, 0xF0,
    0xFE, 0xF0, 0xFD, 0x01, 0xEF, 0x20, 0x10, 0x21, 0x02, 0x10, 0xE0, 0x01, 0x01, 0x0E, 0x20, 0xF0,
    0x10, 0x22, 0x02, 0x00, 0x11, 0x21, 0x02, 0x0E, 0x21, 0x00, 0x21, 0x02, 0x10, 0x12, 0x00, 0x00,
    0x0F, 0x10, 0x0F, 0xFF, 0x11, 0xEF, 0x1F, 0x00, 0x10, 0x11, 0x11, 0x01, 0x11, 0x01, 0x01, 0xF1,
    0xFC, 0xE0, 0xEE, 0xFF, 0xFE, 0x00, 0xEE, 0x20, 0x00, 0x10, 0x12, 0x12, 0xFF, 0x10, 0xE0, 0x1D,
    0x00, 0xFF, 0xFF, 0xFF, 0xEF, 0xFF, 0x00, 0x12, 0xFF, 0x2F, 0xF0, 0xF1, 0x02, 0x00, 0x1F, 0xFF,
    0x0F, 0x12, 0x1F, 0xD0, 0x01, 0xFF, 0x0D, 0xFE, 0xE0, 0x10, 0x00, 0x0F, 0x01, 0x0E, 0x0F, 0xDF,
    0x1F, 0x10, 0xF2, 0x11, 0x11, 0xED, 0x0F, 0xEE, 0x11, 0x00, 0x00, 0x11, 0xE2, 0xFF, 0x00, 0xED,
    0xEF, 0x1E, 0x21, 0x12, 0x23, 0x42, 0x24, 0x23, 0x22, 0x00, 0x12, 0xF0, 0x10, 0x11, 0x1F, 0x01,
    0xFD, 0x21, 0xF2, 0x00, 0x11, 0xE1, 0xFE, 0x0F, 0x00, 0x12, 0xF2, 0x31, 0x42, 0x1F, 0x01, 0x01,
    0x10, 0x01, 0xCF, 0xDD, 0x0D, 0xDD, 0xFE, 0xE0, 0xDE, 0x0E, 0xEF, 0xEE, 0x00, 0x0F, 0xE0, 0xF0,
    0xE0, 0xFD, 0x0E, 0xDF, 0xEF, 0xEE, 0xDE, 0xFF, 0x2F, 0xF0, 0xF0, 0xDF, 0xEE, 0x00, 0x00, 0xD0,
    0xFE, 0x0F, 0xFE, 0x0F, 0xFF, 0x00, 0x00, 0xE0, 0xFD, 0x00, 0xFF, 0xFE, 0xDF, 0xFF, 0x0F, 0x01,
    0x01, 0x21, 0x01, 0x11, 0x22, 0xFF, 0x2F, 0x02, 0xFF, 0x10, 0xF1, 0x0F, 0x0F, 0xF0, 0x01, 0xFF,
    0x0F, 0x0F, 0xF0, 0x10, 0x11, 0xF1, 0x21, 0x02, 0xFF, 0x00, 0xF1, 0x20, 0x53, 0x0F, 0x10, 0xC1,
    0x1F, 0x10, 0x0E, 0x10, 0xF2, 0x20, 0x34, 0x20, 0x44, 0xE1, 0xFE, 0xEF, 0xFF, 0xF1, 0xEF, 0xF0,
    0x0F, 0x0E, 0x01, 0x21, 0x00, 0x1F, 0x02, 0x41, 0xE3, 0x0F, 0x01, 0xEE, 0x0F, 0xD0, 0xFF, 0xF0,
    0xFF, 0xFF, 0xFE, 0xEE, 0x00, 0x00, 0x10, 0x2F, 0x01, 0xF0, 0x0F, 0xDF, 0x3F, 0x43, 0x33, 0x12,
    0x10, 0x10, 0xF0, 0x10, 0x00, 0xFF, 0x00, 0x11, 0x00, 0xF1, 0x00, 0xEF, 0xEE, 0xEF, 0x0F, 0x00,
    0x1F, 0x00, 0x00, 0x01, 0x00, 0x10, 0x01, 0x00, 0x11, 0x01, 0x00, 0x21, 0x11, 0x1F, 0x11, 0x00,
    0x1F, 0x11, 0x00, 0x02, 0xF1, 0x0F, 0xF0, 0x00, 0x10, 0x2F, 0x11, 0xF1, 0x01, 0x11, 0xF0, 0x11,
    0xE0, 0x00, 0x0F, 0xFF, 0xFF, 0x0F, 0x01, 0x10, 0x02, 0x01, 0x20, 0xF0, 0x1E, 0x03, 0x00, 0x00,
    0x11, 0x01, 0xE1, 0x0C, 0x11, 0xCB, 0x0F, 0xD1, 0xFD, 0x02, 0xFE, 0x0F, 0x00, 0xFF, 0x10, 0x21,
    0x01, 0x20, 0x12, 0x01, 0x11, 0xF0, 0x1F, 0xF1, 0xDE, 0x03, 0xEF, 0x0F, 0xEE, 0xDE, 0xED, 0xEC,
    0xE0, 0xEC, 0x1F, 0xFF, 0xFE, 0xEE, 0xEE, 0xFE, 0xF0, 0x0F, 0xE1, 0xFE, 0x10, 0x1D, 0x33, 0x03,
    0x32, 0x12, 0x00, 0x12, 0xF1, 0x1E, 0x23, 0x01, 0x31, 0xF1, 0x21, 0x01, 0x21, 0xF1, 0x10, 0x02,
    0x0F, 0x00, 0x01, 0xC0, 0xFD, 0x10, 0xFF, 0xFF, 0x20, 0x12, 0x00, 0x01, 0x11, 0xE0, 0x01, 0x00,
    0xFF, 0x10, 0xD2, 0x0F, 0x10, 0x20, 0x12, 0xE0, 0x11, 0xF1, 0x0E, 0x0F, 0xEF, 0xFE, 0x00, 0xED,
    0xED, 0xE1, 0xEE, 0xFF, 0xCD, 0xFD, 0xC0, 0x0D, 0x00, 0xEF, 0x00, 0xF1, 0x21, 0xF1, 0x00, 0x0F,
    0xE1, 0x10, 0x42, 0x1F, 0x1F, 0xE1, 0x02, 0xCD, 0x11, 0xF2, 0x3E, 0x02, 0xDE, 0x02, 0xFF, 0x2F,
    0x01, 0x12, 0xF0, 0x10, 0x01, 0x11, 0x21, 0x01, 0x42, 0xF5, 0x0F, 0x01, 0xFE, 0x00, 0xFE, 0x21,
    0x02, 0x1F, 0x02, 0xE0, 0xFF, 0xDF, 0x1E, 0x12, 0x0D, 0x22, 0x01, 0x20, 0x00, 0xF0, 0xEF, 0xFE,
    0xED, 0x0F, 0xE1, 0x0F, 0xFF, 0x0E, 0x00, 0xFD, 0x11, 0xFF, 0x0F, 0xF0, 0xE0, 0x0F, 0xE0, 0xEC,
    0x10, 0xE1, 0x0F, 0x11, 0x0E, 0xF1, 0xEF, 0x0F, 0x1F, 0xEC, 0x11, 0xE1, 0x21, 0x22, 0x2F, 0x22,
    0xE1, 0x0E, 0xEF, 0xEF, 0xDD, 0x0B, 0x01, 0xEE, 0x0F, 0xF0, 0x1F, 0x11, 0x0F, 0x11, 0x00, 0x00,
    0xDE, 0xEE, 0x10, 0x01, 0x01, 0x11, 0x01, 0x0F, 0xF1, 0xD1, 0xFE, 0xFF, 0xFF, 0xEF, 0x1E, 0xF0,
    0x0F, 0x21, 0x02, 0xEF, 0x10, 0xF1, 0xEC, 0x20, 0x1F, 0x01, 0xDE, 0x0F, 0x31, 0xF2, 0xEF, 0x0F,
    0x20, 0xDF, 0xFC, 0x00, 0xC0, 0xCB, 0xFE, 0x2D, 0x11, 0x00, 0x32, 0x12, 0x01, 0xF1, 0x10, 0x00,
    0x11, 0xF1, 0x11, 0x00, 0x0F, 0xF0, 0xFD, 0xFD, 0x11, 0x00, 0x10, 0x11, 0x22, 0x02, 0x0F, 0xEE,
    0x1C, 0x10, 0x12, 0x0F, 0x0F, 0x01, 0x00, 0xFF, 0xFF, 0x10, 0xFE, 0x0F, 0x10, 0x02, 0x00, 0x14,
    0x00, 0x10, 0xFF, 0xF0, 0xDF, 0xFE, 0xEE, 0xFF, 0xF0, 0x1C, 0x00, 0x12, 0x02, 0x0F, 0x41, 0x12,
    0x10, 0x00, 0x00, 0xD1, 0xEE, 0xC0, 0x0E, 0x01, 0xF0, 0xF1, 0x21, 0x12, 0x11, 0x11, 0x01, 0x01,
    0xF0, 0x00, 0xE0, 0xF0, 0x10, 0x00, 0x00, 0x10, 0xFF, 0xEF, 0xF0, 0xEE, 0xFC, 0xDE, 0xCC, 0x13,
    0x01, 0x11, 0x21, 0x00, 0xEE, 0xDF, 0xED, 0xDF, 0xFE, 0xFF, 0xEE, 0x0E, 0x0F, 0xF0, 0x31, 0x12,
    0x20, 0x22, 0x11, 0x12, 0x21, 0x11, 0x11, 0x32, 0x0F, 0x20, 0x00, 0x11, 0x0F, 0x10, 0x01, 0x11,
    0x11, 0x00, 0x11, 0xF1, 0x0F, 0xDE, 0xEC, 0xBC, 0xBC, 0xCE, 0xDD, 0xEE, 0xF0, 0xFE, 0xED, 0xDE,
    0xFE, 0x21, 0x13, 0x02, 0x10, 0x11, 0xEE, 0xED, 0xDF, 0xDC, 0xFE, 0xDD, 0xEC, 0x1F, 0x0F, 0x01,
    0x0F, 0x12, 0xE1, 0x1F, 0x12, 0xED, 0x00, 0xDF, 0xEE, 0xF0, 0x11, 0x10, 0x31, 0xF1, 0x1E, 0xEF,
    0xED, 0xF0, 0xDE, 0xCC, 0xE0, 0xBC, 0x3B, 0x33, 0xF1, 0x00, 0x21, 0xF0, 0x10, 0x21, 0x23, 0x02,
    0x0F, 0xF0, 0xBC, 0x0F, 0x21, 0x31, 0x12, 0x20, 0x13, 0xFF, 0x0F, 0xEC, 0xF0, 0xED, 0x0E, 0xF0,
    0xEE, 0x00, 0xFF, 0xFF, 0xEE, 0xFC, 0x00, 0xBA, 0x10, 0x12, 0x01, 0x0F, 0xF1, 0xFF, 0xFF, 0xEE,
    0xCD, 0xF1, 0xF1, 0x1F, 0x11, 0x00, 0x1F, 0xEF, 0xFE, 0xF0, 0x10, 0xCD, 0x1F, 0xF0, 0xF1, 0x20,
    0xFF, 0x0F, 0xF0, 0x10, 0xF1, 0x11, 0x11, 0xF2, 0x0F, 0x00, 0xEE, 0xEF, 0x1C, 0x11, 0xF0, 0x10,
    0x10, 0x10, 0x0F, 0x20, 0x23, 0x11, 0x11, 0x21, 0x11, 0x00, 0xFF, 0xFF, 0x00, 0xFF, 0x00, 0xFF,
    0x2F, 0x01, 0xFE, 0x23, 0x02, 0xF0, 0x00, 0xF1, 0xFE, 0xFF, 0x1F, 0x10, 0x00, 0xFF, 0x0F, 0x12,
    0xFF, 0xF0, 0x01, 0xEF, 0xFE, 0x00, 0xFF, 0x1F, 0x22, 0x02, 0x12, 0x22, 0x11, 0x01, 0x10, 0x11,
    0xF0, 0x11, 0xF1, 0xFE, 0x00, 0x01, 0x02, 0x00, 0x30, 0xEF, 0xEE, 0xEF, 0xFE, 0x0E, 0xEE, 0xEF,
    0x12, 0x01, 0x10, 0xDF, 0xCB, 0xDF, 0xAC, 0xEB, 0xDE, 0xCC, 0xEF, 0x0E, 0xFF, 0x11, 0x22, 0x30,
    0x21, 0x01, 0x11, 0x01, 0x00, 0x11, 0x11, 0xF0, 0xEF, 0x1F, 0xFF, 0xFE, 0x0F, 0x00, 0xFF, 0x00,
    0x01, 0x00, 0x10, 0x0F, 0x11, 0xE0, 0xEE, 0x2F, 0xDC, 0xFF, 0xF1, 0x10, 0xE1, 0x11, 0x11, 0x0F,
    0x11, 0x21, 0x23, 0x23, 0x22, 0x10, 0x12, 0xEF, 0x0F, 0x0F, 0x00, 0xEF, 0x10, 0xFF, 0x0D, 0x0F,
    0x20, 0x11, 0x12, 0x22, 0xF1, 0x10, 0x00, 0xFF, 0x0E, 0xEF, 0xEF, 0x11, 0x11, 0x12, 0xF0, 0xFE,
    0xEF, 0xEE, 0x1D, 0x00, 0xAF, 0x0F, 0xEF, 0x5D, 0x12, 0xF0, 0x34, 0x02, 0x21, 0x11, 0x0E, 0x12,
    0xE0, 0x2C, 0xF0, 0xBB, 0x12, 0xF0, 0x1F, 0xFF, 0x10, 0x02, 0x10, 0x01, 0x0E, 0x11, 0xDE, 0x20,
    0xF2, 0x0F, 0x10, 0xFF, 0x10, 0xE1, 0x10, 0xF0, 0x1E, 0x12, 0xF0, 0x01, 0x11, 0x11, 0xEF, 0x01,
    0xF2, 0x11, 0x20, 0x21, 0x00, 0x11, 0xE0, 0xF2, 0xDE, 0xFC, 0x0F, 0x32, 0xFE, 0x10, 0xF0, 0x1F,
    0x10, 0x00, 0x10, 0x11, 0x10, 0xF0, 0x00, 0xF1, 0x02, 0x21, 0x11, 0xFE, 0x10, 0xF0, 0xF0, 0xE1,
    0x31, 0xF0, 0xEF, 0x0F, 0xF0, 0x01, 0x0F, 0x20, 0x01, 0x10, 0x11, 0x00, 0x0F, 0x00, 0xEE, 0xBD,
    0xED, 0xEE, 0xED, 0x0F, 0xE2, 0x00, 0x11, 0x10, 0xF0, 0xFF, 0x0E, 0xFE, 0x0F, 0x00, 0x10, 0x11,
    0x21, 0x01, 0x00, 0x12, 0xEF, 0x1F, 0x02, 0xEE, 0xDD, 0xFF, 0xCD, 0xEE, 0xDF, 0xDC, 0x0E, 0xE0,
    0x1F, 0x11, 0x10, 0x21, 0x12, 0xF2, 0x0F, 0xF2, 0x10, 0x12, 0xFF, 0x10, 0x00, 0x00, 0xF0, 0x10,
    0x22, 0x23, 0x01, 0x0F, 0x00, 0x1F, 0x10, 0x00, 0x02, 0x00, 0xF0, 0x12, 0x22, 0x11, 0x21, 0xE2,
    0x22, 0xF1, 0x2F, 0xF0, 0x0E, 0xF0, 0xFF, 0x0F, 0x01, 0xFF, 0x10, 0xDF, 0x3B, 0x23, 0xEE, 0x45,
    0x04, 0x30, 0x22, 0x11, 0x00, 0x00, 0xF1, 0xDE, 0x0F, 0xEE, 0x0E, 0xD0, 0xFE, 0x20, 0xFE, 0x10,
    0x02, 0xF1, 0xFF, 0x00, 0x00, 0xED, 0xF0, 0xEE, 0xCB, 0xFD, 0xBE, 0xFD, 0x0E, 0xF0, 0x10, 0x31,
    0x10, 0x02, 0x02, 0x11, 0x10, 0x21, 0x11, 0xF0, 0x00, 0x10, 0x10, 0x11, 0xF1, 0xEE, 0x1E, 0xDE,
    0x0F, 0xEE, 0x20, 0xE2, 0x10, 0x31, 0x11, 0x11, 0xE3, 0x00, 0xE0, 0xF0, 0x01, 0x1E, 0x1F, 0x00,
    0x01, 0x01, 0xF1, 0xF0, 0x10, 0xF1, 0x11, 0x10, 0x1F, 0xF0, 0x0F, 0x00, 0x01, 0xFF, 0xDE, 0x00,
    0x11, 0xFF, 0x1F, 0x01, 0xEC, 0x11, 0xDF, 0xFD, 0xF0, 0xDF, 0x0E, 0x0F, 0xD0, 0x1F, 0xFE, 0xFF,
    0xFF, 0xFE, 0xFE, 0x0F, 0x01, 0x00, 0x20, 0x01, 0x32, 0x22, 0x03, 0xD0, 0xEC, 0x0F, 0xF1, 0x0E,
    0x21, 0xF0, 0x00, 0x11, 0xFF, 0x01, 0xFF, 0xF0, 0xDF, 0x0D, 0xF0, 0xDE, 0x00, 0xEF, 0x1F, 0x12,
    0xF0, 0x01, 0x0F, 0x0E, 0xCE, 0xDC, 0x0E, 0xEE, 0xFF, 0xEF, 0xFF, 0xF1, 0x0F, 0x2E, 0xFF, 0x10,
    0xE1, 0xFE, 0x0E, 0xF0, 0xEF, 0x10, 0x21, 0x01, 0xF0, 0xF0, 0x00, 0x12, 0x01, 0xFF, 0xEF, 0x01,
    0xF0, 0x0F, 0xF1, 0xEF, 0xFE, 0xDE, 0xDE, 0xED, 0xCD, 0x20, 0x22, 0x21, 0x21, 0x01, 0xF0, 0x00,
    0xE1, 0xEE, 0x00, 0xFE, 0xFF, 0x1F, 0xFF, 0xFF, 0xED, 0x0F, 0xFF, 0xFF, 0xEF, 0xEF, 0xFF, 0xFE,
    0xFE, 0xFF, 0xEC, 0x10, 0xC1, 0xCC, 0xED, 0x20, 0xD1, 0x1D, 0x23, 0xDD, 0x12, 0xE0, 0xF1, 0x10,
    0x31, 0x10, 0x11, 0x00, 0x22, 0x02, 0x11, 0x21, 0x02, 0x10, 0x00, 0x10, 0x01, 0xF0, 0x0E, 0xF1,
    0xFE, 0x20, 0x01, 0x11, 0x00, 0x00, 0xF0, 0x0F, 0x00, 0xFF, 0x1F, 0x01, 0x1E, 0x12, 0xF0, 0x0F,
    0x10, 0xF0, 0x00, 0x00, 0x12, 0x22, 0xF2, 0xF0, 0xDF, 0x0F, 0x0F, 0x0E, 0x00, 0x2F, 0x20, 0x00,
    0xF1, 0x2F, 0x23, 0x0E, 0x01, 0x11, 0x00, 0xFF, 0x0E, 0x00, 0xEF, 0x0F, 0x00, 0x21, 0x11, 0x0F,
    0xFE, 0xDE, 0xFE, 0xDF, 0xDD, 0xEE, 0xCF, 0xEC, 0xEE, 0xED, 0xEE, 0x0E, 0xE1, 0xFF, 0x3F, 0x10,
    0xF0, 0x03, 0x00, 0xE1, 0xEE, 0x21, 0x22, 0x00, 0x30, 0x22, 0xF1, 0xEE, 0xFE, 0xF0, 0x10, 0xF1,
    0x22, 0xF2, 0x0D, 0x0F, 0x11, 0xFF, 0x21, 0xB1, 0xFD, 0x11, 0xEC, 0xFE, 0x0E, 0x12, 0xEF, 0x1F,
    0x11, 0x22, 0x02, 0x31, 0xF1, 0xEE, 0xF1, 0xFE, 0x10, 0x0F, 0x10, 0x01, 0xEE, 0xFE, 0x11, 0xE0,
    0xF0, 0xE0, 0x0E, 0xDE, 0x00, 0xFF, 0x0F, 0x10, 0xDC, 0xEE, 0xAE, 0xEB, 0xEF, 0x21, 0x23, 0x32,
    0x33, 0x22, 0x11, 0xF0, 0xEF, 0xDD, 0xFF, 0xFF, 0x0E, 0xEF, 0xFF, 0xEE, 0x22, 0x01, 0x2F, 0x12,
    0x21, 0xEE, 0x1E, 0xE0, 0xFF, 0x11, 0xF0, 0x10, 0xE0, 0xFF, 0x0F, 0x12, 0x01, 0xE1, 0xEE, 0xEF,
    0x00, 0xFE, 0x1D, 0x10, 0x11, 0x21, 0x32, 0xF3, 0x1F, 0x12, 0xFE, 0x00, 0x12, 0x00, 0x00, 0x22,
    0x01, 0x10, 0x02, 0x10, 0xF0, 0x0F, 0xE1, 0xFE, 0xE0, 0x11, 0x00, 0x2E, 0xEF, 0x0F, 0xE0, 0x1F,
    0x00, 0x11, 0xF0, 0x13, 0x11, 0x01, 0x1F, 0x11, 0xCD, 0xFE, 0xEF, 0x10, 0xEF, 0x10, 0xE1, 0x1F,
    0x01, 0x10, 0x02, 0x10, 0x01, 0x00, 0x21, 0x10, 0x21, 0x03, 0x32, 0x14, 0xED, 0xDE, 0xED, 0xFF,
    0xDE, 0xEE, 0x00, 0x0D, 0x0F, 0xFF, 0x02, 0x1F, 0x02, 0xF0, 0x00, 0xEE, 0xFF, 0x0E, 0x00, 0x11,
    0x00, 0x0F, 0xE0, 0xFF, 0xFF, 0xDF, 0xFE, 0x2D, 0x21, 0x01, 0x01, 0xF1, 0x01, 0x00, 0x10, 0xFE,
    0x00, 0xD1, 0xAC, 0xFB, 0xDC, 0x0E, 0xE1, 0xFE, 0x31, 0xFE, 0x20, 0x03, 0x00, 0x20, 0xCB, 0xFD,
    0x0F, 0xFF, 0x0F, 0x0F, 0xE0, 0xFF, 0xFF, 0xFF, 0x0F, 0xFF, 0x1F, 0xF0, 0xDD, 0xF2, 0xDF, 0xFD,
    0xFE, 0x0F, 0x0E, 0xF0, 0xFF, 0xFF, 0xEE, 0xDF, 0x01, 0xDF, 0x32, 0x01, 0x1F, 0xF2, 0xFF, 0x00,
    0x10, 0x10, 0x11, 0xF2, 0x11, 0xE0, 0x0F, 0x00, 0x0E, 0xF0, 0xE1, 0x1F, 0x01, 0x2F, 0x22, 0xF2,
    0x1F, 0xF0, 0xEF, 0x0F, 0xFE, 0x0C, 0x01, 0xE0, 0x11, 0x10, 0x1F, 0x12, 0x12, 0xDE, 0x1F, 0xEE,
    0xF0, 0xEE, 0x31, 0xE0, 0x2F, 0xD2, 0x0D, 0xF0, 0x1F, 0x10, 0x01, 0x2E, 0x02, 0xFF, 0x03, 0xFE,
    0xE2, 0xED, 0x01, 0xEF, 0xFF, 0x00, 0xF0, 0xD0, 0x2F, 0xFF, 0x0E, 0x00, 0xD1, 0x01, 0x0F, 0xFF,
    0x1F, 0x12, 0x1F, 0xE0, 0x0F, 0x01, 0xF0, 0x00, 0x20, 0xEF, 0x0F, 0xE1, 0x0F, 0x11, 0x21, 0x01,
    0xEF, 0x02, 0xFF, 0x1D, 0xE1, 0xFF, 0xEF, 0x1E, 0xEF, 0xF0, 0x0E, 0xE1, 0x00, 0xF0, 0x00, 0x00,
    0x0F, 0x00, 0xF1, 0x00, 0x10, 0x1F, 0x01, 0x11, 0x12, 0x10, 0x02, 0x0F, 0x41, 0x02, 0x00, 0x12,
    0x11, 0xFF, 0x01, 0xD1, 0x03, 0xFF, 0xFF, 0x0F, 0x00, 0xFE, 0xFE, 0x2F, 0xEF, 0xDE, 0x01, 0xF0,
    0x3E, 0x44, 0x13, 0x11, 0x11, 0x01, 0x00, 0x10, 0x10, 0x00, 0x00, 0x11, 0x00, 0xDD, 0xFF, 0x0F,
    0x00, 0x2F, 0xF1, 0xFF, 0x10, 0x01, 0x11, 0x12, 0x11, 0xF1, 0x10, 0x32, 0x11, 0x10, 0x02, 0x00,
    0x11, 0x01, 0x00, 0xF0, 0x0F, 0xEE, 0xDF, 0xBA, 0x09, 0x01, 0xDF, 0x0F, 0xF0, 0xEF, 0x10, 0x00,
    0xDE, 0xFE, 0x10, 0xBE, 0xFB, 0x00, 0xDF, 0x0E, 0xF0, 0xE0, 0x22, 0x11, 0xF0, 0x1F, 0x01, 0x9C,
    0xDB, 0xCC, 0xEF, 0xEF, 0xEC, 0x00, 0xE0, 0xFF, 0xFF, 0xDD, 0xFF, 0x21, 0x12, 0x0F, 0x21, 0x01,
    0xFE, 0x01, 0xEF, 0xFD, 0xF0, 0x1F, 0x22, 0x21, 0xF0, 0xEE, 0xFE, 0xED, 0xFE, 0xFF, 0x0E, 0x10,
    0x00, 0x20, 0x02, 0x00, 0x11, 0x11, 0x00, 0x20, 0x11, 0xF0, 0x1E, 0x22, 0x01, 0x10, 0x00, 0xF0,
    0x00, 0x00, 0x21, 0x11, 0x33, 0x33, 0x21, 0x22, 0x12, 0x01, 0x11, 0x01, 0xFF, 0xEE, 0xEC, 0xEF,
    0xEF, 0xFF, 0xFE, 0x10, 0xE0, 0x31, 0x02, 0x10, 0x0F, 0x11, 0xDE, 0xED, 0xEE, 0xDD, 0xCD, 0xEE,
    0xFE, 0xCF, 0xDC, 0x30, 0x10, 0x32, 0x03, 0x21, 0x11, 0x10, 0x01, 0xD0, 0xFE, 0xE0, 0xCD, 0xDE,
    0x00, 0x0F, 0x21, 0xFE, 0x0E, 0xF1, 0xFF, 0x10, 0x00, 0x11, 0x00, 0xFE, 0xF0, 0xFE, 0xFF, 0x0F,
    0xF0, 0xF0, 0xFF, 0x0F, 0xFE, 0xFE, 0xD0, 0x11, 0xF0, 0x3F, 0x22, 0x22, 0x40, 0x03, 0xE1, 0x12,
    0x10, 0x0E, 0x10, 0xF1, 0x00, 0x01, 0x02, 0x00, 0x0D, 0xF0, 0xF0, 0xFF, 0xFF, 0x10, 0x22, 0x00,
    0x11, 0x00, 0xE3, 0xEE, 0x20, 0xED, 0xED, 0xD1, 0xED, 0x1F, 0xCF, 0x0B, 0xF1, 0xEE, 0x1F, 0xFE,
    0x00, 0x11, 0xF1, 0x2F, 0x00, 0x10, 0xF1, 0x10, 0x11, 0x0E, 0x11, 0x01, 0x00, 0xE0, 0x0E, 0x11,
    0x02, 0xE1, 0x00, 0xE0, 0xFD, 0xFF, 0xFE, 0x10, 0xFF, 0x1F, 0xF2, 0xEF, 0x00, 0xDE, 0x1F, 0xD1,
    0x1E, 0x10, 0xFF, 0x10, 0x02, 0x10, 0x12, 0xEE, 0xFE, 0xE1, 0x00, 0x1F, 0x0E, 0x01, 0xE0, 0x11,
    0xF1, 0xFE, 0x00, 0xD1, 0xED, 0x1D, 0xFE, 0xEE, 0xF1, 0xEF, 0x2E, 0x10, 0xF0, 0xF2, 0xE0, 0x0F,
    0xBB, 0xFD, 0xB1, 0x0E, 0x20, 0xEE, 0x0F, 0xE1, 0xFE, 0x00, 0x0F, 0x10, 0x20, 0xFF, 0x00, 0x12,
    0x01, 0x22, 0x01, 0x0F, 0xF0, 0x0F, 0xEF, 0x10, 0x01, 0xFF, 0x00, 0xF1, 0xFF, 0xEE, 0xFE, 0x01,
    0x1F, 0x01, 0x00, 0x12, 0x11, 0xF0, 0x00, 0xF0, 0x00, 0x1F, 0x00, 0x10, 0x33, 0x21, 0x01, 0x01,
    0x21, 0xF0, 0x1F, 0x01, 0x20, 0x22, 0xF1, 0x01, 0xF0, 0xEE, 0x0F, 0x00, 0x11, 0x21, 0x00, 0xEF,
    0xF0, 0x10, 0x21, 0xD2, 0x0E, 0x0F, 0x0E, 0xEF, 0x1E, 0xF0, 0x00, 0xDD, 0x0E, 0x00, 0x0F, 0x00,
    0x21, 0x00, 0x0F, 0x11, 0x01, 0xF0, 0x00, 0xDF, 0x1D, 0xF1, 0xDE, 0x1F, 0xEF, 0xFF, 0x1F, 0x02,
    0xF0, 0x00, 0x00, 0x10, 0xED, 0xBB, 0xCD, 0xCD, 0xDC, 0xDD, 0x0E, 0x0E, 0x00, 0x10, 0x23, 0x11,
    0xE1, 0x0F, 0x00, 0xFE, 0xFF, 0xE0, 0x11, 0x11, 0x0F, 0x12, 0xF2, 0x10, 0x21, 0x00, 0x10, 0xF2,
    0x0F, 0x21, 0xE0, 0x00, 0x0F, 0xEF, 0xFE, 0xF0, 0xEE, 0x0E, 0xFE, 0x11, 0xE0, 0x0F, 0xF1, 0xFF,
    0x31, 0xEE, 0x0F, 0xD1, 0xED, 0x2F, 0x00, 0x00, 0x11, 0x00, 0x21, 0x03, 0x10, 0x1F, 0x11, 0xDF,
    0xF0, 0xE1, 0x0B, 0xE0, 0xFE, 0x00, 0x0F, 0x10, 0x00, 0x00, 0xFF, 0xFF, 0xDC, 0xBB, 0x9B, 0x21,
    0x33, 0x22, 0x12, 0x2F, 0x21, 0x11, 0x10, 0x11, 0x11, 0x00, 0x21, 0x02, 0x00, 0x01, 0xF0, 0x01,
    0xF0, 0x11, 0xF1, 0x21, 0x21, 0x11, 0x11, 0xF0, 0xF0, 0xFF, 0xF0, 0x0F, 0x10, 0xDF, 0x0E, 0x20,
    0xF0, 0xDE, 0x13, 0x11, 0x1F, 0x10, 0x01, 0x00, 0x11, 0xF1, 0x0F, 0x10, 0xEF, 0xFF, 0xEF, 0xDC,
    0xCD, 0x0F, 0x20, 0x13, 0x20, 0x22, 0xF0, 0x01, 0x01, 0x01, 0xEE, 0x20, 0xE0, 0xBC, 0xCD, 0xDD,
    0x0E, 0x00, 0x0E, 0xF1, 0x0F, 0xFF, 0x1F, 0x04, 0x21, 0x64, 0x00, 0xE0, 0xEE, 0xEF, 0x20, 0x0E,
    0x11, 0x02, 0xF1, 0xFF, 0x12, 0xEF, 0xED, 0x10, 0x21, 0x1F, 0x12, 0x01, 0x21, 0xF0, 0x00, 0xDF,
    0xED, 0xFF, 0x00, 0xDF, 0x1F, 0x02, 0x21, 0x12, 0x10, 0x00, 0xE0, 0xED, 0x0E, 0xFD, 0x43, 0xF4,
    0x00, 0xDD, 0xF0, 0xEE, 0x0E, 0x1F, 0xEF, 0x11, 0x11, 0x0F, 0xFF, 0xFE, 0xDF, 0xCD, 0xEC, 0xFF,
    0xFF, 0x0F, 0x10, 0x11, 0x00, 0x0F, 0x00, 0xFF, 0xF1, 0x2F, 0x11, 0x0F, 0x10, 0x01, 0x0F, 0xFF,
    0x00, 0x00, 0xF1, 0x00, 0x20, 0xD0, 0x1E, 0xC3, 0x1E, 0x21, 0x0D, 0x11, 0x01, 0x11, 0x00, 0x10,
    0x11, 0x11, 0x00, 0x00, 0x02, 0x01, 0x10, 0xF0, 0x00, 0x24, 0x01, 0x4F, 0x12, 0xF1, 0xED, 0x10,
    0xF2, 0x2F, 0xF0, 0xF0, 0xE0, 0xFD, 0xFF, 0xFE, 0xF0, 0x0F, 0xF1, 0x10, 0x01, 0xFF, 0x10, 0x00,
    0x21, 0x22, 0x22, 0x21, 0x20, 0x33, 0xE0, 0x00, 0x01, 0x10, 0x00, 0xF0, 0x11, 0x31, 0xF1, 0xFE,
    0xD0, 0xE1, 0xFE, 0xFD, 0xF0, 0x0F, 0xF0, 0x0E, 0x10, 0xFF, 0xFF, 0xF0, 0xFF, 0x0D, 0xDF, 0xCC,
    0x11, 0x0F, 0x11, 0x00, 0x11, 0x00, 0x00, 0x11, 0x21, 0x11, 0x22, 0xF2, 0x0F, 0x00, 0x01, 0x00,
    0x01, 0x0D, 0x01, 0xFF, 0x01, 0xFF, 0x1E, 0xF1, 0xFF, 0x00, 0x0F, 0xE0, 0x00, 0x01, 0xEF, 0x00,
    0x1D, 0xF0, 0xD0, 0x01, 0xDE, 0x0F, 0x10, 0x11, 0x00, 0x00, 0xF0, 0x00, 0xF0, 0x00, 0xE0, 0x1D,
    0x01, 0xDE, 0x0F, 0x11, 0xF2, 0x01, 0x01, 0x0F, 0x00, 0xFE, 0x11, 0xEF, 0x0F, 0x9E, 0x0D,
};

const uint8_t linear_0_bias[] PROGMEM = {
    0x00, 0x00, 0x00, 0x00, 0x00, 0x00, 0x00, 0x00, 0x01, 0x00, 0x00, 0x00, 0x00, 0x00, 0x00, 0x00,
    0xFF, 0xFF, 0xFF, 0xFF, 0x00, 0x00, 0x00, 0x00, 0x00, 0x00, 0x00, 0x00, 0x02, 0x00, 0x00, 0x00,
    0xFF, 0xFF, 0xFF, 0xFF, 0xFF, 0xFF, 0xFF, 0xFF, 0xFE, 0xFF, 0xFF, 0xFF, 0x00, 0x00, 0x00, 0x00,
    0x01, 0x00, 0x00, 0x00, 0x00, 0x00, 0x00, 0x00, 0x01, 0x00, 0x00, 0x00, 0x01, 0x00, 0x00, 0x00,
    0x00, 0x00, 0x00, 0x00, 0x01, 0x00, 0x00, 0x00, 0x01, 0x00, 0x00, 0x00, 0xFF, 0xFF, 0xFF, 0xFF,
    0x02, 0x00, 0x00, 0x00, 0xFF, 0xFF, 0xFF, 0xFF, 0x01, 0x00, 0x00, 0x00, 0x01, 0x00, 0x00, 0x00,
    0x02, 0x00, 0x00, 0x00, 0xFF, 0xFF, 0xFF, 0xFF, 0x00, 0x00, 0x00, 0x00, 0x00, 0x00, 0x00, 0x00,
    0x00, 0x00, 0x00, 0x00,
};

const uint8_t linear_0_output_scale[] = {
    0xA8, 0xF4, 0x26, 0x40,
};

const uint8_t linear_0_output_zero_point[] = {
    0x04,
};

const uint8_t linear_0_input_zero_point[] = {
    0x00,
};

const uint8_t linear_0_bias_scale[] = {
    0x36, 0x21, 0x8B, 0x3D,
};

const uint8_t linear_1_weight[] PROGMEM = {
    0xA3, 0xDE, 0xE0, 0xBD, 0x31, 0x2D, 0xCD, 0x14, 0xFF, 0x03, 0xC1, 0x2D, 0xF2, 0xE2, 0x32, 0x22,
    0xE1, 0x1B, 0xD2, 0xAD, 0x31, 0x01, 0x12, 0xF3, 0x49, 0x3E, 0x12, 0xFE, 0xDF, 0xBF, 0x1C, 0xFD,
    0x02, 0x1F, 0x3E, 0xFF, 0xDF, 0xC1, 0xDE, 0x0C, 0x31, 0xBD, 0x3E, 0xDC, 0xE1, 0xED, 0xCE, 0x03,
    0xEE, 0x0E, 0xEC, 0x3C, 0xE1, 0xEF, 0xF1, 0xDF, 0x2B, 0x3F, 0x0D, 0x2F, 0xE3, 0xB0, 0xCC, 0xDE,
    0x2C, 0x0F, 0x0E, 0x30, 0xF2, 0xE3, 0x1F, 0xFA, 0xEC, 0xF2, 0xEF, 0xE2, 0x21, 0x1F, 0x0D, 0xFD,
    0xE1, 0xFD, 0xFE, 0xEF, 0x1E, 0x23, 0x1A, 0x0F, 0xCE, 0x11, 0x3E, 0x30, 0x03, 0xED, 0x3D, 0xC3,
    0x1E, 0xDF, 0x11, 0x22, 0x91, 0x42, 0x12, 0x10, 0x01, 0xBE, 0x0F, 0x4E, 0x30, 0x1D, 0x1F, 0x1E,
    0xDC, 0xA1, 0xDD, 0x02, 0x2E, 0xB1, 0x2A, 0xEE, 0x21, 0xFD, 0x30, 0x20, 0xFD, 0xED, 0x0E, 0xDE,
    0xE1, 0x20, 0xFF, 0x40, 0x11, 0x32, 0x1F, 0x2F, 0xDD, 0xF1, 0xBE, 0x41, 0x03, 0xC3, 0x0B, 0xD0,
    0xF1,
};

const uint8_t linear_1_bias[] PROGMEM = {
    0x00, 0x00, 0x00, 0x00, 0x00, 0x00, 0x00, 0x00, 0x00, 0x00, 0x00, 0x00, 0x00, 0x00, 0x00, 0x00,
    0x00, 0x00, 0x00, 0x00, 0x00, 0x00, 0x00, 0x00, 0xFF, 0xFF, 0xFF, 0xFF, 0x00, 0x00, 0x00, 0x00,
    0x01, 0x00, 0x00, 0x00, 0x00, 0x00, 0x00, 0x00,
};

const uint8_t linear_1_output_scale[] = {
    0xA3, 0x02, 0x57, 0x3F,
};

const uint8_t linear_1_output_zero_point[] = {
    0x02,
};

const uint8_t linear_1_input_zero_point[] = {
    0x04,
};

const uint8_t linear_1_bias_scale[] = {
    0x0A, 0xF4, 0x7C, 0x3E,
};
