#include "uno_model.h"


const uint8_t conv2d_0_weight[] PROGMEM = {
    0xBD, 0xAC, 0xCE, 0xBB, 0x11, 0xDA, 0x1F, 0xD3, 0x22, 0x45, 0x1E, 0x56, 0x36, 0x55, 0x03, 0x64,
    0x56, 0x33, 0x74, 0x37, 0x34, 0x53, 0x23, 0x03, 0x31,
};

const uint8_t conv2d_0_bias[] PROGMEM = {
    0x11, 0x00, 0x00, 0x00, 0x0A, 0x00, 0x00, 0x00,
};

const uint8_t conv2d_0_output_scale[] PROGMEM = {
    0x03, 0x2A, 0x58, 0x3F,
};

const uint8_t conv2d_0_output_zero_point[] PROGMEM = {
    0xFD,
};

const uint8_t conv2d_0_input_zero_point[] PROGMEM = {
    0xF8,
};

const uint8_t conv2d_0_bias_scale[] PROGMEM = {
    0x86, 0x14, 0xCF, 0x3B,
};

const uint8_t conv2d_1_weight[] PROGMEM = {
    0x1E, 0x41, 0xF2, 0x3F, 0x13, 0x0E, 0xF0, 0xD0, 0xE0, 0xDE, 0xDC, 0xDB, 0xFE, 0x30, 0x24, 0x2F,
    0x13, 0x0F, 0x01, 0xE0, 0x10, 0x00, 0x00, 0x11, 0xF1, 0x11, 0x53, 0x06, 0x33, 0x33, 0xCB, 0xBB,
    0xEE, 0xBC, 0x00, 0x22, 0x35, 0x02, 0xD0, 0xED, 0x22, 0x43, 0x04, 0x52, 0x35, 0xCE, 0xDF, 0x0E,
    0xDF, 0xDC, 0x42, 0x14, 0x3E, 0x12, 0x00, 0x22, 0x04, 0x30, 0x02, 0xFE, 0x33, 0xE0, 0xCF, 0x41,
    0xF2, 0x3D, 0xF4, 0xDB, 0x42, 0xB0, 0x3F, 0xE3, 0x09, 0x02, 0xBC, 0xBD, 0xCC, 0xDB, 0xCD, 0xBA,
    0x32, 0xD1, 0x5C, 0x02, 0x0F, 0xE1, 0xD0, 0xFD, 0x0E, 0xEE, 0xE0, 0xDB, 0x1C, 0x0F, 0xEF, 0x32,
    0x45, 0x42, 0x34, 0x45, 0x21, 0x21, 0x1F, 0x22, 0xF0, 0xFD, 0x00, 0xC1, 0x0F, 0x21, 0xBA, 0xEE,
    0x1D, 0x01, 0x11, 0x03, 0x0F, 0x4F, 0xDF, 0x00, 0x24, 0x00, 0x32, 0x54, 0x12, 0xDE, 0xDB, 0xED,
    0xAB, 0xDB, 0xC0, 0xCD, 0x2C, 0xF0, 0xFE, 0x12, 0x11, 0x2F, 0x22, 0xEF, 0x10, 0x34, 0xE2, 0x30,
    0x33, 0x0F, 0x31, 0xF3, 0xEF, 0x00, 0x32, 0x13, 0xD1, 0xBF, 0xCB, 0xBD, 0x1E, 0x32, 0x44, 0x02,
    0x46, 0x12, 0x3F, 0x24, 0x32, 0x23, 0x34, 0xC3, 0xEF, 0xFE, 0xCE, 0xCD, 0xFF, 0x00, 0xFF, 0xF2,
    0xAD, 0xDA, 0xBC, 0xBE, 0xE0, 0x1F, 0x1C, 0x32, 0x14, 0x32, 0x64, 0xFF, 0x11, 0x21, 0x0D, 0x21,
    0xD3, 0x0E, 0x23, 0x0D, 0x22, 0xE3, 0x21, 0x02, 0x1F, 0x11, 0xE3, 0xEF, 0xFF, 0x23, 0xE1, 0x70,
    0x23, 0x53, 0x54, 0x23, 0x14, 0x02, 0xEE, 0xEF, 0xDE, 0xCF, 0xCC, 0xED, 0xFD, 0x0F, 0x10, 0x22,
    0x43,
};

const uint8_t conv2d_1_bias[] PROGMEM = {
    0x00, 0x00, 0x00, 0x00, 0x00, 0x00, 0x00, 0x00, 0xFF, 0xFF, 0xFF, 0xFF, 0xFF, 0xFF, 0xFF, 0xFF,
    0x01, 0x00, 0x00, 0x00, 0x02, 0x00, 0x00, 0x00, 0x00, 0x00, 0x00, 0x00, 0xFF, 0xFF, 0xFF, 0xFF,
    0x02, 0x00, 0x00, 0x00,
};

const uint8_t conv2d_1_output_scale[] PROGMEM = {
    0x70, 0x73, 0xFA, 0x3F,
};

const uint8_t conv2d_1_output_zero_point[] PROGMEM = {
    0xFF,
};

const uint8_t conv2d_1_input_zero_point[] PROGMEM = {
    0xFD,
};

const uint8_t conv2d_1_bias_scale[] PROGMEM = {
    0xBA, 0x13, 0x55, 0x3D,
};

const uint8_t linear_0_weight[] PROGMEM = {
    0xDE, 0xCE, 0x0F, 0xFF, 0x00, 0x10, 0x10, 0x32, 0x2F, 0x13, 0x00, 0x01, 0xE0, 0x00, 0xFF, 0xF0,
    0x0E, 0xEF, 0x11, 0x00, 0xE0, 0x10, 0x10, 0x12, 0x21, 0x22, 0xF0, 0x21, 0x11, 0x01, 0x0F, 0xFE,
    0xFF, 0xFF, 0x00, 0x11, 0xF0, 0x1F, 0xEE, 0x30, 0xDC, 0x1F, 0x0F, 0x20, 0x1F, 0x01, 0x1F, 0x11,
    0x01, 0x11, 0x0F, 0x11, 0x0F, 0xEF, 0x0F, 0xFF, 0xCD, 0x2E, 0xEE, 0x31, 0x10, 0x11, 0x10, 0x01,
    0x22, 0x01, 0x0F, 0x00, 0x11, 0xF1, 0x02, 0xEF, 0x00, 0xF0, 0x01, 0x11, 0x0F, 0x11, 0x0D, 0xE0,
    0x12, 0xEF, 0x11, 0xEF, 0x33, 0xD1, 0xF1, 0xCF, 0xFE, 0x01, 0x0F, 0x12, 0x1E, 0x02, 0x31, 0xE1,
    0xFD, 0xEF, 0xED, 0xD0, 0xFE, 0xEF, 0x11, 0xF0, 0x01, 0x01, 0x1F, 0x01, 0x0E, 0xE0, 0xCE, 0x0D,
    0x21, 0x32, 0x22, 0xF0, 0x12, 0xE0, 0xFF, 0xE0, 0x02, 0xEF, 0x10, 0xFF, 0x22, 0x13, 0x21, 0xF1,
    0x20, 0x32, 0x0E, 0x10, 0x22, 0xE0, 0x31, 0xE0, 0xEF, 0xFF, 0x0D, 0x01, 0x01, 0x10, 0x12, 0x11,
    0xEE, 0x0E, 0x0F, 0x10, 0x11, 0x01, 0x02, 0x11, 0x13, 0xE2, 0xF2, 0xDF, 0x0F, 0x1F, 0xFF, 0x40,
    0xEF, 0xF1, 0x11, 0x20, 0x01, 0x0F, 0x02, 0x00, 0x23, 0xF0, 0x02, 0xDF, 0x0F, 0xF0, 0xF0, 0x1F,
    0xF0, 0x00, 0xFF, 0xFF, 0x00, 0x01, 0x12, 0x10, 0x00, 0x62, 0xFE, 0x2F, 0x1F, 0xE0, 0x0F, 0xFF,
    0x13, 0xE1, 0x02, 0xFF, 0x00, 0x1F, 0x0F, 0x10, 0x01, 0x51, 0x21, 0x20, 0x01, 0xFF, 0xF1, 0xF0,
    0x01, 0xCE, 0x00, 0x00, 0x00, 0x20, 0x01, 0x11, 0xFE, 0x10, 0x0D, 0x01, 0x1F, 0x01, 0x20, 0xF1,
    0x42, 0x02, 0x00, 0x0F, 0xFF, 0x10, 0xDC, 0xFE, 0x0E, 0x31, 0x0E, 0x01, 0x02, 0xE0, 0x01, 0xEF,
    0x11, 0xFE, 0x00, 0x21, 0x10, 0x20, 0xEF, 0x41, 0xEE, 0x0F, 0xFE, 0x11, 0xFE, 0x02, 0x11, 0x22,
    0x1F, 0x01, 0xF0, 0xFE, 0xF1, 0xFF, 0x0F, 0x12, 0x45, 0x21, 0x02, 0x10, 0xDF, 0xFE, 0xEC, 0x00,
    0x11, 0x13, 0x11, 0x01, 0x11, 0xC0, 0x10, 0xF0, 0x00, 0xED, 0x02, 0x20, 0x21, 0x21, 0xE0, 0xFF,
    0x22, 0x00, 0x12, 0xF0, 0x01, 0xE1, 0x22, 0x00, 0x0F, 0x11, 0x0D, 0x01, 0xEE, 0x0F, 0x1E, 0x11,
    0x34, 0xF1, 0x13, 0xF0, 0x22, 0xF1, 0x02, 0x00, 0xF0, 0x31, 0x0F, 0x10, 0xDC, 0xEE, 0x01, 0xF1,
    0x01, 0x00, 0x02, 0xF0, 0x01, 0x00, 0x22, 0xE0, 0xF0, 0x11, 0x1F, 0x21, 0x10, 0x11, 0x02, 0xEF,
    0x0E, 0x22, 0x0E, 0x11, 0x0F, 0x0F, 0x10, 0x22, 0xF1, 0xEF, 0x0F, 0x1E, 0x00, 0x3F, 0xF0, 0xFD,
    0x01, 0x31, 0x2F, 0x01, 0xFD, 0x0F, 0x1F, 0x13, 0x0E, 0xE0, 0x10, 0xF1, 0x11, 0xF1, 0x10, 0x11,
    0xDE, 0x9B, 0x01, 0xDE, 0xF1, 0x00, 0xF0, 0x3F, 0x20, 0x22, 0x21, 0x01, 0x21, 0x01, 0x13, 0xE0,
    0xF1, 0xD0, 0x0F, 0x01, 0xFF, 0x10, 0x00, 0x21, 0xFF, 0x00, 0xF0, 0x01, 0x00, 0x10, 0xFE, 0x1F,
    0x32, 0x01, 0x11, 0x00, 0x01, 0x10, 0x11, 0x02, 0xD1, 0xBC, 0x0F, 0xDE, 0x01, 0x10, 0x00, 0x10,
    0x13, 0xF1, 0x00, 0x00, 0x1F, 0xF1, 0x00, 0xFE, 0xFF, 0x1F, 0x0F, 0x00, 0x1F, 0x11, 0x00, 0x30,
    0xFF, 0x12, 0x0E, 0x21, 0xE0, 0x00, 0xF0, 0xFF, 0x00, 0xFF, 0x10, 0xE0, 0x20, 0x00, 0x12, 0x02,
    0xDE, 0x10, 0xFF, 0x0F, 0xDF, 0x1E, 0xDD, 0x10, 0x0E, 0xF0, 0xEF, 0x0F, 0xF1, 0x00, 0x21, 0x01,
    0xFE, 0x1F, 0x0E, 0x0F, 0x11, 0x1F, 0x11, 0x00, 0xFE, 0x31, 0xDD, 0x1F, 0xFD, 0x11, 0x00, 0x10,
    0x01, 0xF1, 0xFF, 0xF1, 0x0E, 0x10, 0xF0, 0x11, 0x21, 0x23, 0xED, 0x01, 0x0E, 0x11, 0x00, 0x11,
    0xFF, 0xFF, 0x00, 0x01, 0x00, 0xF0, 0x00, 0xE0, 0x01, 0x00, 0x02, 0x00, 0x01, 0x10, 0x00, 0x20,
    0x0E, 0xF0, 0xFC, 0xF1, 0x0E, 0x01, 0x01, 0x00, 0x11, 0x12, 0x12, 0x11, 0x11, 0x12, 0x10, 0x33,
    0xFE, 0x21, 0xFE, 0x00, 0xFF, 0xF1, 0x1E, 0xCE, 0x11, 0x00, 0x01, 0x01, 0x11, 0x0F, 0x0F, 0x10,
    0xE0, 0xFE, 0x21, 0x00, 0x00, 0xFE, 0x12, 0x0F, 0xDD, 0x0F, 0xFE, 0x00, 0x00, 0x10, 0x10, 0xF0,
    0xFD, 0xF0, 0xFF, 0x11, 0x1F, 0x31, 0x11, 0x12, 0x10, 0x02, 0xFE, 0xE0, 0x0E, 0xF1, 0xEC, 0xF0,
    0xFF, 0xEE, 0x00, 0x10, 0x02, 0x21, 0x00, 0x31, 0x22, 0xD1, 0x00, 0xCF, 0x00, 0x11, 0xFF, 0x1F,
    0xE1, 0xFF, 0x12, 0x33, 0x21, 0x21, 0x22, 0x22, 0x22, 0x02, 0xF0, 0xF0, 0x0E, 0x0F, 0xFE, 0xEF,
    0x12, 0x1E, 0x12, 0x00, 0x01, 0x00, 0x0F, 0x10, 0x0E, 0x74, 0x1F, 0x21, 0x0F, 0xE0, 0xF0, 0x0F,
    0x11, 0xC1, 0x10, 0xFE, 0x01, 0x1F, 0x10, 0x10, 0xF0, 0x40, 0xFF, 0x50, 0xFF, 0x2F, 0x0F, 0x00,
    0x02, 0xDF, 0x0F, 0xF1, 0xFF, 0x31, 0xEE, 0x2F, 0x02, 0xFF, 0x00, 0x1F, 0x00, 0x01, 0xFF, 0x11,
    0x22, 0x23, 0x1F, 0x01, 0xF0, 0xFF, 0xF0, 0xDD, 0xEF, 0xEF, 0x01, 0x02, 0x1F, 0x00, 0x31, 0x02,
    0x30, 0x22, 0x0F, 0x11, 0x0F, 0xF0, 0xEC, 0xBC, 0x11, 0xF1, 0xF0, 0x11, 0x0F, 0x0F, 0xFB, 0x10,
    0xFF, 0x10, 0x10, 0xF0, 0xF1, 0xFF, 0xF1, 0xFF, 0x32, 0x23, 0x11, 0x01, 0x0F, 0x00, 0x11, 0xF0,
    0xFE, 0x11, 0x1F, 0x12, 0x00, 0x11, 0x10, 0x11, 0x12, 0x22, 0x0F, 0x00, 0x01, 0x10, 0xFF, 0xFE,
    0x00, 0xEF, 0x00, 0xEE, 0x0F, 0x00, 0x10, 0x12, 0x01, 0x01, 0x00, 0x11, 0xE1, 0xBB, 0xCD, 0xFE,
    0x33, 0xFF, 0x21, 0x2F, 0xFE, 0x21, 0x01, 0x01, 0x10, 0x12, 0x00, 0xDF, 0x22, 0xEE, 0x10, 0x32,
    0x0F, 0x00, 0x0F, 0xF0, 0xEE, 0x00, 0x00, 0x42, 0x11, 0xE0, 0x01, 0x12, 0x01, 0xF0, 0x0D, 0xFF,
    0xFF, 0xF0, 0x11, 0x02, 0x01, 0xDD, 0xEF, 0xDC, 0xEE, 0xFE, 0x01, 0x21, 0x11, 0x11, 0x01, 0xE0,
    0x21, 0x02, 0x12, 0xC0, 0x21, 0xF1, 0x33, 0x52, 0x10, 0x21, 0x11, 0x11, 0x00, 0x01, 0xFE, 0xF0,
    0x11, 0x21, 0xFF, 0xEE, 0x00, 0xFE, 0x11, 0x0F, 0x30, 0x01, 0x10, 0x02, 0x31, 0x22, 0x11, 0x23,
    0xF0, 0xEF, 0x00, 0xFE, 0x01, 0xE0, 0x11, 0xAE, 0xF0, 0x11, 0xF0, 0x00, 0xEF, 0xEF, 0xFF, 0xDF,
    0x12, 0x22, 0x12, 0x01, 0xF1, 0x10, 0x00, 0x00, 0x20, 0x43, 0x0F, 0x01, 0x00, 0xFF, 0x00, 0x10,
    0x0F, 0x11, 0x0F, 0x12, 0x0F, 0x01, 0x00, 0xF1, 0x11, 0x02, 0x11, 0xF1, 0x21, 0x11, 0x20, 0x00,
    0x11, 0x01, 0x1F, 0x11, 0x10, 0x01, 0x11, 0xFF, 0xED, 0x10, 0xFE, 0xF0, 0xDB, 0x0F, 0xFD, 0xFF,
    0x1F, 0x11, 0x0E, 0x00, 0x11, 0x11, 0x02, 0x10, 0xEE, 0xFF, 0x1F, 0x00, 0xFD, 0xEF, 0xED, 0x10,
    0x1F, 0x02, 0x0F, 0x02, 0x0D, 0x02, 0x2F, 0x12, 0x11, 0x10, 0x31, 0x0F, 0x20, 0xF1, 0x0F, 0xF0,
    0xDE, 0x0E, 0xFE, 0x10, 0xFD, 0x00, 0xED, 0x0F, 0x0F, 0x11, 0x21, 0x0F, 0x21, 0xF1, 0x00, 0x02,
    0x0F, 0xF0, 0xF1, 0xFF, 0xEF, 0xEF, 0xFE, 0xF0, 0x12, 0x00, 0x1F, 0x11, 0x00, 0x11, 0x20, 0x11,
    0xEE, 0x0F, 0x00, 0x31, 0xF0, 0x21, 0xFE, 0x1F, 0x23, 0x43, 0x01, 0x1F, 0x12, 0x0F, 0xF0, 0x01,
    0xDF, 0x0E, 0x12, 0x0F, 0xFF, 0xFF, 0xFD, 0x00, 0x01, 0x10, 0x00, 0x11, 0x1F, 0x11, 0x0F, 0x11,
    0xE2, 0xBD, 0x13, 0x0F, 0x01, 0x0F, 0x01, 0x01, 0xDC, 0x0F, 0x0F, 0x10, 0x11, 0x21, 0xEE, 0x10,
    0x00, 0x0E, 0x01, 0x0F, 0x10, 0x11, 0xFF, 0x01, 0xF0, 0x12, 0x0F, 0xF0, 0x1F, 0xFF, 0xFE, 0xEF,
    0xEF, 0xFF, 0x1F, 0x0F, 0x01, 0x1F, 0x13, 0x32, 0xFD, 0x10, 0xFF, 0xDE, 0xFE, 0xEF, 0x11, 0x41,
    0x21, 0x21, 0x1F, 0x0F, 0xF0, 0xFF, 0xEF, 0x1F, 0xEF, 0x0F, 0xF1, 0x32, 0xF1, 0x30, 0x00, 0x33,
    0xFF, 0xEF, 0xF1, 0x00, 0x22, 0x21, 0x23, 0x21, 0xFE, 0x20, 0xFD, 0x00, 0xFD, 0x2F, 0x21, 0x11,
    0x0F, 0x10, 0xFE, 0xFF, 0xFE, 0xEE, 0x0F, 0x00, 0x01, 0x0E, 0xF2, 0x0F, 0xFF, 0x31, 0xFF, 0x00,
    0x10, 0x00, 0x23, 0x1F, 0xE0, 0x10, 0xFC, 0xFF, 0xEE, 0x00, 0xFF, 0x10, 0xFF, 0x11, 0xFF, 0x02,
    0x13, 0xD0, 0x12, 0xD0, 0x11, 0x01, 0x01, 0x10, 0xED, 0x0F, 0x0F, 0x11, 0x00, 0x10, 0x01, 0x01,
    0x31, 0x11, 0x00, 0x02, 0x01, 0x0F, 0xF1, 0x10, 0xEE, 0x0F, 0xFD, 0x00, 0x0F, 0xF0, 0xDF, 0x0F,
    0x1F, 0x20, 0xFE, 0x1E, 0xEF, 0xFF, 0xFE, 0x00, 0x23, 0xF1, 0x13, 0x00, 0x11, 0x01, 0x11, 0xF0,
    0x10, 0x23, 0xF0, 0x11, 0xFF, 0x01, 0x20, 0x02, 0x01, 0x12, 0x10, 0x10, 0x11, 0x10, 0x03, 0x20,
    0x0F, 0x00, 0xF0, 0x21, 0x1F, 0x22, 0x00, 0xF0, 0xF1, 0xDF, 0x12, 0xE1, 0x21, 0x23, 0xEF, 0xEF,
    0xEE, 0x1F, 0xFF, 0x30, 0x01, 0x01, 0x01, 0xF1, 0xF0, 0xEF, 0x01, 0xE0, 0x00, 0xF1, 0xDE, 0xFE,
    0x01, 0x00, 0x11, 0x11, 0x10, 0x11, 0x11, 0x11, 0x10, 0x21, 0x11, 0xE0, 0x21, 0xEE, 0x0F, 0x10,
    0x04, 0xBE, 0x02, 0xE0, 0x11, 0x02, 0xF0, 0x0F, 0x11, 0x32, 0x21, 0x11, 0x01, 0xFF, 0x11, 0x12,
    0xEE, 0xCD, 0xDF, 0x0F, 0xEF, 0x00, 0xEE, 0xDE, 0x12, 0xF0, 0x02, 0xF0, 0x0F, 0x00, 0x10, 0xF0,
    0xFF, 0x31, 0x0E, 0x41, 0x11, 0xF1, 0x1F, 0xD0, 0x03, 0x00, 0x00, 0xF1, 0x0F, 0x01, 0xF0, 0xF0,
    0xFD, 0x1F, 0x10, 0x11, 0x0F, 0xFF, 0x10, 0x01, 0x22, 0x01, 0x21, 0x11, 0x1F, 0x10, 0x11, 0x01,
    0xEF, 0xAC, 0xF1, 0xDE, 0x13, 0xF0, 0xF0, 0x10, 0x0D, 0x42, 0x0D, 0x21, 0x00, 0x00, 0x10, 0xF0,
    0xFE, 0xD0, 0xFF, 0xCF, 0x01, 0xEF, 0x01, 0x01, 0x1F, 0x31, 0x1F, 0x01, 0x10, 0xFE, 0x10, 0xF0,
    0x11, 0x11, 0x10, 0x12, 0xFF, 0xF0, 0xFE, 0xFF, 0x12, 0x41, 0x00, 0x20, 0x12, 0xF1, 0x12, 0xCF,
    0xFE, 0x00, 0x11, 0xF0, 0x1E, 0x11, 0x0E, 0x42, 0x20, 0x01, 0xEC, 0xFF, 0x10, 0x00, 0x23, 0xD0,
    0x0F, 0x10, 0x10, 0x00, 0xF0, 0xE0, 0xEE, 0xEE, 0x00, 0x0E, 0xF0, 0x11, 0x12, 0x10, 0xF1, 0x00,
    0x11, 0x10, 0x02, 0x21, 0x10, 0x01, 0x23, 0xE1, 0x1E, 0xE0, 0x0F, 0xF0, 0x11, 0x22, 0x41, 0x54,
    0x21, 0x21, 0x01, 0x10, 0x10, 0xF1, 0x11, 0xE0, 0x10, 0x10, 0xF0, 0x01, 0x00, 0xEF, 0x10, 0xFE,
    0x33, 0x42, 0x11, 0x30, 0x00, 0x10, 0x0F, 0x00, 0xFE, 0xEE, 0x00, 0xFF, 0x11, 0xE0, 0xEF, 0xFF,
    0x23, 0x01, 0x22, 0xE1, 0xF2, 0x00, 0x22, 0x11, 0xF0, 0x10, 0xF0, 0x10, 0x0F, 0xE0, 0x21, 0xF0,
    0x12, 0x42, 0xF0, 0x11, 0x00, 0x12, 0xFE, 0xF0, 0x35, 0x32, 0x12, 0x11, 0x00, 0x0F, 0x00, 0x00,
    0x22, 0x02, 0x02, 0xFF, 0x11, 0xF0, 0x11, 0x10, 0x00, 0x10, 0x11, 0x1E, 0xF2, 0xEF, 0x22, 0xF1,
    0xFD, 0x10, 0x0E, 0x01, 0xFE, 0x11, 0xFF, 0x01, 0x11, 0x00, 0x13, 0x00, 0x12, 0x01, 0x22, 0x00,
    0x1E, 0x32, 0x1F, 0x00, 0x00, 0xF0, 0x21, 0xD1, 0x10, 0xE0, 0x13, 0xF0, 0x23, 0x12, 0xF3, 0x00,
    0xFF, 0x0F, 0xFF, 0x10, 0xFF, 0x10, 0xDF, 0x10, 0x12, 0xEF, 0xFF, 0xE0, 0xFE, 0x10, 0x1E, 0x31,
    0x03, 0x0F, 0x12, 0xFF, 0x12, 0x01, 0x01, 0xF0, 0x13, 0xF0, 0x13, 0xF1, 0x11, 0xE0, 0x11, 0x11,
    0xF0, 0x11, 0x02, 0x01, 0x12, 0x11, 0x23, 0x20, 0xEE, 0xF0, 0x1E, 0x02, 0x01, 0x01, 0x11, 0x00,
    0x24, 0xF1, 0x11, 0xFF, 0xF0, 0xFE, 0x0E, 0x10, 0x1F, 0xF1, 0x10, 0xF0, 0x11, 0xF1, 0x12, 0x00,
    0x24, 0x02, 0x0F, 0x01, 0xFF, 0xF0, 0xF0, 0x00, 0xFF, 0x0F, 0xEF, 0x00, 0xFF, 0x00, 0x1F, 0x01,
    0x21, 0x21, 0xFF, 0x11, 0xF1, 0x00, 0x00, 0x00, 0x35, 0x02, 0x13, 0x10, 0xE0, 0xFF, 0x00, 0x1F,
    0x23, 0xF2, 0x02, 0x01, 0x02, 0xEF, 0x10, 0xE1, 0x11, 0x22, 0x00, 0x10, 0x10, 0x01, 0x31, 0x02,
    0x0E, 0x21, 0x1E, 0x12, 0x1E, 0x02, 0x10, 0x11, 0xDD, 0xFC, 0xFE, 0xEF, 0xEE, 0xF0, 0xEC, 0x00,
    0x2D, 0x32, 0x10, 0x12, 0x21, 0x12, 0x03, 0x00, 0x0F, 0xFF, 0x11, 0x01, 0xEF, 0x0F, 0x10, 0x00,
    0xED, 0x10, 0xED, 0x10, 0xEE, 0x11, 0xFE, 0x11, 0x02, 0xEF, 0x1F, 0x11, 0x10, 0x11, 0x00, 0x23,
    0xDD, 0xFD, 0xFF, 0x0F, 0xFF, 0x00, 0xFF, 0x00, 0x10, 0x00, 0x10, 0xF1, 0x0F, 0x00, 0x0F, 0x11,
    0x12, 0x12, 0x22, 0x02, 0x11, 0x1F, 0x11, 0x02, 0x22, 0x01, 0x12, 0xF1, 0x00, 0xFF, 0x00, 0xFE,
    0x0E, 0x42, 0x0F, 0x11, 0x1F, 0xE0, 0x22, 0xD1, 0xF1, 0xE0, 0xF0, 0xEE, 0xFF, 0x10, 0xED, 0x1F,
    0xFE, 0x21, 0xED, 0x1F, 0xFE, 0xF0, 0x21, 0x02, 0x1F, 0x01, 0x02, 0xE1, 0x21, 0xF0, 0x42, 0xE1,
    0x0F, 0x10, 0x11, 0x00, 0x22, 0x01, 0xF1, 0xFF, 0x1E, 0x31, 0x0F, 0x11, 0xFE, 0xF0, 0x10, 0xF1,
    0x0E, 0x01, 0x1F, 0xFF, 0x21, 0x00, 0x12, 0x41, 0x01, 0xFF, 0x0F, 0x00, 0xFF, 0xEF, 0x11, 0xF0,
    0x0F, 0xF1, 0x11, 0x00, 0x11, 0x00, 0x01, 0x20, 0xDE, 0x10, 0xDC, 0xED, 0xFF, 0xEF, 0x11, 0x32,
    0x23, 0x02, 0x01, 0x1F, 0x12, 0x00, 0x10, 0x11, 0x00, 0x00, 0x0F, 0x00, 0x1F, 0x11, 0x20, 0x00,
    0x0F, 0xE0, 0x11, 0x01, 0x12, 0x10, 0x22, 0x11, 0x0F, 0x0F, 0xFD, 0x11, 0x00, 0xFF, 0x00, 0xF0,
    0xFE, 0x00, 0x0E, 0xFF, 0xFE, 0xED, 0x02, 0x0F, 0xF1, 0xEE, 0x0F, 0x00, 0x1F, 0x10, 0x00, 0x01,
    0x12, 0x13, 0x21, 0xF2, 0x10, 0x01, 0x0E, 0x01, 0xFF, 0x0F, 0x01, 0x00, 0x01, 0x00, 0x10, 0xFF,
    0xDE, 0xEE, 0xE0, 0x0F, 0x12, 0x21, 0x11, 0x11, 0x1F, 0x31, 0x3F, 0x12, 0x11, 0xF0, 0x33, 0xFF,
    0x01, 0xEE, 0x12, 0xF0, 0x12, 0x0F, 0xEE, 0xDD, 0xF0, 0xF1, 0x02, 0xF0, 0x11, 0xFF, 0xDE, 0x00,
    0x01, 0x0F, 0xF1, 0xF0, 0x01, 0x0F, 0x00, 0x12, 0xEF, 0xCE, 0xEE, 0x00, 0x11, 0x33, 0x13, 0x01,
    0xF1, 0x01, 0x01, 0x01, 0xF0, 0xFF, 0xFF, 0x00, 0x10, 0xEF, 0x12, 0x11, 0xF1, 0x11, 0xF0, 0x21,
    0x10, 0xF0, 0x00, 0xE0, 0x00, 0x00, 0x12, 0x0F, 0x11, 0xF1, 0x1F, 0xDF, 0xFF, 0xE0, 0x2F, 0xF0,
    0x10, 0xDF, 0x0E, 0x11, 0xFE, 0x02, 0x00, 0xEF, 0x10, 0x02, 0x00, 0x11, 0x0F, 0x0F, 0x21, 0x53,
    0xF0, 0x01, 0x00, 0x00, 0x12, 0x00, 0x22, 0xF1, 0x1E, 0x42, 0x01, 0x1F, 0x00, 0x01, 0xEF, 0x20,
    0x21, 0x23, 0x1F, 0x11, 0x0D, 0xF0, 0x0F, 0x11, 0x1F, 0x13, 0x0F, 0x01, 0x1F, 0xF0, 0xF1, 0xFF,
    0x01, 0x00, 0x10, 0x10, 0x11, 0x1F, 0x02, 0x22, 0x11, 0x10, 0x01, 0x00, 0x01, 0x00, 0x12, 0xFF,
    0xFE, 0x11, 0x1F, 0x32, 0x1F, 0xF0, 0x21, 0xE2, 0x00, 0x10, 0xF0, 0xFE, 0xEF, 0x10, 0xEE, 0xFE,
    0xDD, 0x20, 0xFF, 0x21, 0x0F, 0x00, 0x0F, 0x20, 0x10, 0x01, 0x2F, 0x11, 0x1F, 0x11, 0x22, 0x02,
    0xCE, 0xEF, 0xF0, 0xFF, 0x12, 0x1F, 0x12, 0x01, 0xF0, 0x31, 0xFF, 0x21, 0x0D, 0x00, 0x0F, 0x01,
    0x11, 0x01, 0x0E, 0xE0, 0x00, 0x01, 0x01, 0x20, 0xEE, 0x1E, 0x0F, 0x20, 0xEE, 0xEF, 0xD1, 0xFE,
    0x12, 0x11, 0x10, 0x00, 0x0E, 0xFF, 0x0F, 0x00, 0xF0, 0x42, 0x00, 0x51, 0x01, 0x21, 0xF0, 0xD0,
    0x11, 0x11, 0x10, 0x01, 0xF0, 0x0F, 0x20, 0x21, 0xF0, 0x10, 0x00, 0xF0, 0x20, 0x11, 0xFE, 0xCF,
    0x11, 0xF1, 0x01, 0x11, 0xFE, 0x11, 0xFD, 0x0F, 0x01, 0xBD, 0x22, 0xF0, 0x12, 0x10, 0x01, 0xFF,
    0x10, 0x40, 0x1F, 0x20, 0x11, 0x01, 0xF1, 0x0F, 0xEF, 0xEF, 0x11, 0xFF, 0x11, 0x01, 0x01, 0x01,
    0x11, 0x33, 0x01, 0xFE, 0x10, 0xF0, 0x0F, 0xDF,
};

const uint8_t linear_0_bias[] PROGMEM = {
    0x00, 0x00, 0x00, 0x00, 0x01, 0x00, 0x00, 0x00, 0x00, 0x00, 0x00, 0x00, 0x00, 0x00, 0x00, 0x00,
    0x00, 0x00, 0x00, 0x00, 0xFF, 0xFF, 0xFF, 0xFF, 0x00, 0x00, 0x00, 0x00, 0x00, 0x00, 0x00, 0x00,
    0x00, 0x00, 0x00, 0x00, 0x00, 0x00, 0x00, 0x00, 0x00, 0x00, 0x00, 0x00, 0x00, 0x00, 0x00, 0x00,
    0x01, 0x00, 0x00, 0x00, 0x01, 0x00, 0x00, 0x00, 0x00, 0x00, 0x00, 0x00, 0x00, 0x00, 0x00, 0x00,
    0x01, 0x00, 0x00, 0x00, 0x00, 0x00, 0x00, 0x00, 0x00, 0x00, 0x00, 0x00, 0x00, 0x00, 0x00, 0x00,
    0x00, 0x00, 0x00, 0x00, 0xFF, 0xFF, 0xFF, 0xFF, 0x01, 0x00, 0x00, 0x00, 0x01, 0x00, 0x00, 0x00,
    0x00, 0x00, 0x00, 0x00, 0x00, 0x00, 0x00, 0x00, 0x00, 0x00, 0x00, 0x00, 0x01, 0x00, 0x00, 0x00,
    0x00, 0x00, 0x00, 0x00,
};

const uint8_t linear_0_output_scale[] PROGMEM = {
    0xE8, 0x9E, 0x26, 0x40,
};

const uint8_t linear_0_output_zero_point[] PROGMEM = {
    0xFF,
};

const uint8_t linear_0_input_zero_point[] PROGMEM = {
    0xFF,
};

const uint8_t linear_0_bias_scale[] PROGMEM = {
    0x3C, 0x18, 0xF5, 0x3D,
};

const uint8_t linear_1_weight[] PROGMEM = {
    0xCD, 0xE2, 0x05, 0x1E, 0xD3, 0x21, 0xF4, 0xE1, 0xDD, 0x20, 0x1A, 0x23, 0xD2, 0xD2, 0x0E, 0xF2,
    0x13, 0x35, 0xD2, 0x4E, 0x33, 0xB0, 0xE3, 0xEF, 0x2D, 0x53, 0x1E, 0x14, 0xDC, 0xD2, 0x23, 0x3F,
    0xBE, 0x02, 0xD6, 0xDD, 0x23, 0xC0, 0x2C, 0x22, 0xED, 0x3D, 0xF3, 0xFD, 0x11, 0xA0, 0x51, 0xFD,
    0xCD, 0xAE, 0xEC, 0x14, 0x5D, 0x33, 0xC3, 0xC1, 0x0E, 0xE1, 0x2E, 0xA0, 0x2D, 0x3E, 0xE4, 0xE1,
    0x5F, 0xE5, 0xF4, 0xC0, 0xD1, 0xDF, 0x24, 0xEC, 0xB1, 0xCC, 0xEE, 0x0A, 0xCE, 0x0E, 0xE3, 0x00,
    0xAD, 0x45, 0x24, 0x20, 0xF3, 0x00, 0x40, 0xCD, 0x4C, 0xF6, 0x2D, 0xEE, 0xCD, 0x41, 0xC3, 0x2C,
    0xDE, 0xFE, 0x04, 0xE1, 0x5F, 0x32, 0x1E, 0x04, 0xDF, 0x20, 0x16, 0xC3, 0xEF, 0x11, 0x1C, 0x10,
    0xC4, 0xCB, 0xCD, 0x3B, 0xC4, 0x32, 0xCE, 0xFF, 0xF1, 0xDE, 0x14, 0xDB, 0x34, 0x1E, 0x1E, 0x2F,
    0xEE, 0x22, 0x20, 0xE7, 0xD9, 0xFF, 0x33, 0xB4, 0xF1, 0x1C, 0x20, 0x4F, 0xED, 0xDF, 0x12, 0x2D,
    0xF0,
};

const uint8_t linear_1_bias[] PROGMEM = {
    0xFF, 0xFF, 0xFF, 0xFF, 0x00, 0x00, 0x00, 0x00, 0x00, 0x00, 0x00, 0x00, 0x00, 0x00, 0x00, 0x00,
    0x01, 0x00, 0x00, 0x00, 0x00, 0x00, 0x00, 0x00, 0x00, 0x00, 0x00, 0x00, 0x00, 0x00, 0x00, 0x00,
    0x01, 0x00, 0x00, 0x00, 0x00, 0x00, 0x00, 0x00,
};

const uint8_t linear_1_output_scale[] PROGMEM = {
    0xB9, 0xCC, 0x07, 0x40,
};

const uint8_t linear_1_output_zero_point[] PROGMEM = {
    0x00,
};

const uint8_t linear_1_input_zero_point[] PROGMEM = {
    0xFF,
};

const uint8_t linear_1_bias_scale[] PROGMEM = {
    0x01, 0x9A, 0x1D, 0x3E,
};
